{
  "version": "1.0",
  "truncation": null,
  "padding": null,
  "added_tokens": [
    {
      "id": 0,
      "content": "<pad>",
      "single_word": false,
      "lstrip": false,
      "rstrip": false,
      "normalized": false,
      "special": true
    },
    {
      "id": 1,
      "content": "<s>",
      "single_word": false,
      "lstrip": false,
      "rstrip": false,
      "normalized": false,
      "special": true
    },
    {
      "id": 2,
      "content": "</s>",
      "single_word": false,
      "lstrip": false,
      "rstrip": false,
      "normalized": false,
      "special": true
    },
    {
      "id": 3,
      "content": "<unk>",
      "single_word": false,
      "lstrip": false,
      "rstrip": false,
      "normalized": false,
      "special": true
    },
    {
      "id": 4,
      "content": "<mask>",
      "single_word": false,
      "lstrip": false,
      "rstrip": false,
      "normalized": false,
      "special": true
    }
  ],
  "normalizer": null,
  "pre_tokenizer": {
    "type": "ByteLevel",
    "add_prefix_space": false,
    "trim_offsets": true,
    "use_regex": true
  },
  "post_processor": {
    "type": "ByteLevel",
    "add_prefix_space": true,
    "trim_offsets": false,
    "use_regex": true
  },
  "decoder": {
    "type": "ByteLevel",
    "add_prefix_space": true,
    "trim_offsets": true,
    "use_regex": true
  },
  "model": {
    "type": "BPE",
    "dropout": null,
    "unk_token": null,
    "continuing_subword_prefix": null,
    "end_of_word_suffix": null,
    "fuse_unk": false,
    "byte_fallback": false,
    "ignore_merges": false,
    "vocab": {
      "<pad>": 0,
      "<s>": 1,
      "</s>": 2,
      "<unk>": 3,
      "<mask>": 4,
      "!": 5,
      "\"": 6,
      "#": 7,
      "$": 8,
      "%": 9,
      "&": 10,
      "'": 11,
      "(": 12,
      ")": 13,
      "*": 14,
      "+": 15,
      ",": 16,
      "-": 17,
      ".": 18,
      "/": 19,
      "0": 20,
      "1": 21,
      "2": 22,
      "3": 23,
      "4": 24,
      "5": 25,
      "6": 26,
      "7": 27,
      "8": 28,
      "9": 29,
      ":": 30,
      ";": 31,
      "<": 32,
      "=": 33,
      ">": 34,
      "?": 35,
      "@": 36,
      "A": 37,
      "B": 38,
      "C": 39,
      "D": 40,
      "E": 41,
      "F": 42,
      "G": 43,
      "H": 44,
      "I": 45,
      "J": 46,
      "K": 47,
      "L": 48,
      "M": 49,
      "N": 50,
      "O": 51,
      "P": 52,
      "Q": 53,
      "R": 54,
      "S": 55,
      "T": 56,
      "U": 57,
      "V": 58,
      "W": 59,
      "X": 60,
      "Y": 61,
      "Z": 62,
      "[": 63,
      "\\": 64,
      "]": 65,
      "^": 66,
      "_": 67,
      "`": 68,
      "a": 69,
      "b": 70,
      "c": 71,
      "d": 72,
      "e": 73,
      "f": 74,
      "g": 75,
      "h": 76,
      "i": 77,
      "j": 78,
      "k": 79,
      "l": 80,
      "m": 81,
      "n": 82,
      "o": 83,
      "p": 84,
      "q": 85,
      "r": 86,
      "s": 87,
      "t": 88,
      "u": 89,
      "v": 90,
      "w": 91,
      "x": 92,
      "y": 93,
      "z": 94,
      "{": 95,
      "|": 96,
      "}": 97,
      "~": 98,
      "¡": 99,
      "¢": 100,
      "£": 101,
      "¤": 102,
      "¥": 103,
      "¦": 104,
      "§": 105,
      "¨": 106,
      "©": 107,
      "ª": 108,
      "«": 109,
      "¬": 110,
      "®": 111,
      "¯": 112,
      "°": 113,
      "±": 114,
      "²": 115,
      "³": 116,
      "´": 117,
      "µ": 118,
      "¶": 119,
      "·": 120,
      "¸": 121,
      "¹": 122,
      "º": 123,
      "»": 124,
      "¼": 125,
      "½": 126,
      "¾": 127,
      "¿": 128,
      "À": 129,
      "Á": 130,
      "Â": 131,
      "Ã": 132,
      "Ä": 133,
      "Å": 134,
      "Æ": 135,
      "Ç": 136,
      "È": 137,
      "É": 138,
      "Ê": 139,
      "Ë": 140,
      "Ì": 141,
      "Í": 142,
      "Î": 143,
      "Ï": 144,
      "Ð": 145,
      "Ñ": 146,
      "Ò": 147,
      "Ó": 148,
      "Ô": 149,
      "Õ": 150,
      "Ö": 151,
      "×": 152,
      "Ø": 153,
      "Ù": 154,
      "Ú": 155,
      "Û": 156,
      "Ü": 157,
      "Ý": 158,
      "Þ": 159,
      "ß": 160,
      "à": 161,
      "á": 162,
      "â": 163,
      "ã": 164,
      "ä": 165,
      "å": 166,
      "æ": 167,
      "ç": 168,
      "è": 169,
      "é": 170,
      "ê": 171,
      "ë": 172,
      "ì": 173,
      "í": 174,
      "î": 175,
      "ï": 176,
      "ð": 177,
      "ñ": 178,
      "ò": 179,
      "ó": 180,
      "ô": 181,
      "õ": 182,
      "ö": 183,
      "÷": 184,
      "ø": 185,
      "ù": 186,
      "ú": 187,
      "û": 188,
      "ü": 189,
      "ý": 190,
      "þ": 191,
      "ÿ": 192,
      "Ā": 193,
      "ā": 194,
      "Ă": 195,
      "ă": 196,
      "Ą": 197,
      "ą": 198,
      "Ć": 199,
      "ć": 200,
      "Ĉ": 201,
      "ĉ": 202,
      "Ċ": 203,
      "ċ": 204,
      "Č": 205,
      "č": 206,
      "Ď": 207,
      "ď": 208,
      "Đ": 209,
      "đ": 210,
      "Ē": 211,
      "ē": 212,
      "Ĕ": 213,
      "ĕ": 214,
      "Ė": 215,
      "ė": 216,
      "Ę": 217,
      "ę": 218,
      "Ě": 219,
      "ě": 220,
      "Ĝ": 221,
      "ĝ": 222,
      "Ğ": 223,
      "ğ": 224,
      "Ġ": 225,
      "ġ": 226,
      "Ģ": 227,
      "ģ": 228,
      "Ĥ": 229,
      "ĥ": 230,
      "Ħ": 231,
      "ħ": 232,
      "Ĩ": 233,
      "ĩ": 234,
      "Ī": 235,
      "ī": 236,
      "Ĭ": 237,
      "ĭ": 238,
      "Į": 239,
      "į": 240,
      "İ": 241,
      "ı": 242,
      "Ĳ": 243,
      "ĳ": 244,
      "Ĵ": 245,
      "ĵ": 246,
      "Ķ": 247,
      "ķ": 248,
      "ĸ": 249,
      "Ĺ": 250,
      "ĺ": 251,
      "Ļ": 252,
      "ļ": 253,
      "Ľ": 254,
      "ľ": 255,
      "Ŀ": 256,
      "ŀ": 257,
      "Ł": 258,
      "ł": 259,
      "Ń": 260,
      "Ġt": 261,
      "he": 262,
      "Ġa": 263,
      "in": 264,
      "er": 265,
      "ha": 266,
      "lo": 267,
      "Ġthe": 268,
      "Ġs": 269,
      "on": 270,
      "es": 271,
      "en": 272,
      "ra": 273,
      "ou": 274,
      "ia": 275,
      "gu": 276,
      "Ġd": 277,
      "ter": 278,
      "gue": 279,
      "Dia": 280,
      "logue": 281,
      "Dialogue": 282,
      "Ġw": 283,
      "re": 284,
      "ing": 285,
      "rac": 286,
      "is": 287,
      "Ġb": 288,
      "Cha": 289,
      "nd": 290,
      "racter": 291,
      "Character": 292,
      "Ġm": 293,
      "Ġc": 294,
      "it": 295,
      "Ġf": 296,
      "Ġo": 297,
      "ri": 298,
      "ti": 299,
      "ĠI": 300,
      "Ġto": 301,
      "ĠT": 302,
      "ta": 303,
      "ene": 304,
      "ll": 305,
      "Sc": 306,
      "Scene": 307,
      "Ġh": 308,
      "or": 309,
      "Ġp": 310,
      "tion": 311,
      "ĠS": 312,
      "..": 313,
      "Ġand": 314,
      "ar": 315,
      "Ġdes": 316,
      "Ġof": 317,
      "rip": 318,
      "Ġg": 319,
      "Ġin": 320,
      "Ġy": 321,
      "Ġdesc": 322,
      "Ġhe": 323,
      "ription": 324,
      "Ġdescription": 325,
      "ĠH": 326,
      "ed": 327,
      "an": 328,
      "om": 329,
      "ĠA": 330,
      "le": 331,
      "Ġyou": 332,
      "ĠM": 333,
      "ĠC": 334,
      "ĠB": 335,
      "ow": 336,
      "Ġ-": 337,
      "'s": 338,
      "ĠD": 339,
      "Ġn": 340,
      "ĠW": 341,
      "ck": 342,
      "Ġme": 343,
      "et": 344,
      "at": 345,
      "hat": 346,
      "Ġl": 347,
      "ĠThe": 348,
      "Ġon": 349,
      "Ġis": 350,
      "ot": 351,
      "ve": 352,
      "as": 353,
      "Ġha": 354,
      "gh": 355,
      "us": 356,
      "Ġth": 357,
      "im": 358,
      "Ġbe": 359,
      "...": 360,
      "ly": 361,
      "Ġit": 362,
      "ER": 363,
      "Ġe": 364,
      "ay": 365,
      "Ġhis": 366,
      "ĠL": 367,
      "ĠJ": 368,
      "out": 369,
      "id": 370,
      "ro": 371,
      "ĠE": 372,
      "Ġu": 373,
      "al": 374,
      "ĠR": 375,
      "ce": 376,
      "Ġlo": 377,
      "ĠP": 378,
      "da": 379,
      "ver": 380,
      "AN": 381,
      "ad": 382,
      "ĠN": 383,
      "ir": 384,
      "ld": 385,
      "ke": 386,
      "ĠHe": 387,
      "ĠO": 388,
      "ut": 389,
      "Ġmeta": 390,
      "data": 391,
      "Ġmetadata": 392,
      "ĠG": 393,
      "'t": 394,
      "ith": 395,
      "Ġdo": 396,
      "ght": 397,
      "Ġat": 398,
      "ĠF": 399,
      "Ġre": 400,
      "ch": 401,
      "AR": 402,
      "ĠY": 403,
      "IN": 404,
      "ur": 405,
      "ON": 406,
      "Ġwith": 407,
      "se": 408,
      "Ġfor": 409,
      "ok": 410,
      "Ġher": 411,
      "to": 412,
      "Ġas": 413,
      "ent": 414,
      "Ġk": 415,
      "Ġthat": 416,
      "Ġse": 417,
      "Ġup": 418,
      "Ġhim": 419,
      "Ġout": 420,
      "od": 421,
      "Ġan": 422,
      "ack": 423,
      "Ġsta": 424,
      "Ġli": 425,
      "her": 426,
      "all": 427,
      "am": 428,
      "Ġ--": 429,
      "Ġwe": 430,
      "Ġfr": 431,
      "EN": 432,
      "rou": 433,
      "Ġgo": 434,
      "Ġst": 435,
      "Ġlook": 436,
      "ns": 437,
      "ĠYou": 438,
      "Ġsh": 439,
      "ome": 440,
      "Ġare": 441,
      "ĠIN": 442,
      "li": 443,
      "OR": 444,
      "Ġwh": 445,
      "ĠV": 446,
      "il": 447,
      "Ġj": 448,
      "ge": 449,
      "LL": 450,
      "ard": 451,
      "st": 452,
      "ill": 453,
      "pp": 454,
      "Ġfrom": 455,
      "ic": 456,
      "ess": 457,
      "ps": 458,
      "ak": 459,
      "ust": 460,
      "ind": 461,
      "Ġle": 462,
      "ts": 463,
      "AT": 464,
      "Ġr": 465,
      "el": 466,
      "Ġkn": 467,
      "un": 468,
      "ĠINT": 469,
      "Ġthis": 470,
      "Ġmo": 471,
      "ry": 472,
      "Ġne": 473,
      "Ġback": 474,
      "ers": 475,
      "ĠK": 476,
      "own": 477,
      "Ġinto": 478,
      "ĠWe": 479,
      "Ġnot": 480,
      "ion": 481,
      "IC": 482,
      "Ġcan": 483,
      "ĠShe": 484,
      "ES": 485,
      "OU": 486,
      "ol": 487,
      "ie": 488,
      "AY": 489,
      "ĠIt": 490,
      "one": 491,
      "Ġhave": 492,
      "ud": 493,
      "ain": 494,
      "hing": 495,
      "Ġget": 496,
      "ĠTH": 497,
      "if": 498,
      "um": 499,
      "Ġyour": 500,
      "hes": 501,
      "ould": 502,
      "'re": 503,
      "Ġdown": 504,
      "ng": 505,
      "LE": 506,
      "Ġwas": 507,
      "ide": 508,
      "Ġro": 509,
      "'m": 510,
      "ab": 511,
      "Ġab": 512,
      "Ġoff": 513,
      "Ġde": 514,
      "ac": 515,
      "way": 516,
      "Ġall": 517,
      "Ġknow": 518,
      "ight": 519,
      "Ġcon": 520,
      "Ġshe": 521,
      "IS": 522,
      "Ġmy": 523,
      "Ġsp": 524,
      "IG": 525,
      "Ġbut": 526,
      "OM": 527,
      "EL": 528,
      "ves": 529,
      "Ġsee": 530,
      "alk": 531,
      "ink": 532,
      "Ġover": 533,
      "Ġcom": 534,
      "AL": 535,
      "low": 536,
      "ĠEX": 537,
      "Ġthem": 538,
      "Ġone": 539,
      "ting": 540,
      "Ġlooks": 541,
      "Ġlike": 542,
      "Ġthey": 543,
      "Ġwhat": 544,
      "round": 545,
      "ake": 546,
      "ig": 547,
      "Ġdon": 548,
      "qu": 549,
      "end": 550,
      "Ġstar": 551,
      "our": 552,
      "ING": 553,
      "Ġhand": 554,
      "ĠEXT": 555,
      "ET": 556,
      "IT": 557,
      "Ġdoor": 558,
      "ant": 559,
      "ĠAnd": 560,
      "Ġv": 561,
      "Ġri": 562,
      "ĠWhat": 563,
      "ull": 564,
      "Ġex": 565,
      "ace": 566,
      "Ġpl": 567,
      "Ġco": 568,
      "Ġby": 569,
      "Ġ...": 570,
      "Ġso": 571,
      "and": 572,
      "te": 573,
      "IE": 574,
      "Ġjust": 575,
      "CK": 576,
      "ĠThey": 577,
      "IGH": 578,
      "Ġwor": 579,
      "OT": 580,
      "Ġsm": 581,
      "ĠTHE": 582,
      "Ġgu": 583,
      "ous": 584,
      "Ġwhe": 585,
      "ss": 586,
      "Ġno": 587,
      "ick": 588,
      "ff": 589,
      "very": 590,
      "ul": 591,
      "RE": 592,
      "Ġtur": 593,
      "AM": 594,
      "ars": 595,
      "IGHT": 596,
      "Ġ\"": 597,
      "Ġabout": 598,
      "ec": 599,
      "'ll": 600,
      "ell": 601,
      "Ġ(": 602,
      "ap": 603,
      "Ġthere": 604,
      "Ġag": 605,
      "Ġthen": 606,
      "Ġpo": 607,
      "Ġsc": 608,
      "Ġho": 609,
      "Ġman": 610,
      "ine": 611,
      "ĠST": 612,
      "ast": 613,
      "Ġhas": 614,
      "ist": 615,
      "ward": 616,
      "ĠRO": 617,
      "ĠDAY": 618,
      "Ġsu": 619,
      "Ġfe": 620,
      "ĠAN": 621,
      "ther": 622,
      "Ġsome": 623,
      "Ġbo": 624,
      "lf": 625,
      "Ġwho": 626,
      "ally": 627,
      "UT": 628,
      "ition": 629,
      "ĠTO": 630,
      "ED": 631,
      "est": 632,
      "Ġhere": 633,
      "--": 634,
      "ne": 635,
      "rough": 636,
      "OL": 637,
      "ty": 638,
      "ep": 639,
      "AS": 640,
      "ID": 641,
      "pen": 642,
      "ass": 643,
      "au": 644,
      "Ġhead": 645,
      "Ġen": 646,
      "rans": 647,
      "Ġtw": 648,
      "han": 649,
      "Ġwa": 650,
      "Ġnow": 651,
      "tle": 652,
      "Ġgot": 653,
      "Ġar": 654,
      "ĠNo": 655,
      "ru": 656,
      "other": 657,
      "CH": 658,
      "Ġaround": 659,
      "Ġus": 660,
      "ran": 661,
      "SE": 662,
      "Ġcar": 663,
      "Ġthrough": 664,
      "akes": 665,
      "ore": 666,
      "Ġtheir": 667,
      "op": 668,
      "Ġwant": 669,
      "ate": 670,
      "Ġagain": 671,
      "Ġac": 672,
      "ond": 673,
      "ĠSH": 674,
      "Ġright": 675,
      "Ġthink": 676,
      "Ġother": 677,
      "ĠTh": 678,
      "Ġal": 679,
      "ĠNIGHT": 680,
      "ont": 681,
      "Ġclo": 682,
      "row": 683,
      "Ġstand": 684,
      "Ġopen": 685,
      "Ġsto": 686,
      "Ġwalk": 687,
      "ag": 688,
      "Ġany": 689,
      "Ġey": 690,
      "are": 691,
      "ving": 692,
      "ire": 693,
      "ice": 694,
      "its": 695,
      "ven": 696,
      "les": 697,
      "ransition": 698,
      "Transition": 699,
      "'ve": 700,
      "AD": 701,
      "Ġra": 702,
      "Ġun": 703,
      "ive": 704,
      "em": 705,
      "Ġaway": 706,
      "Ġturns": 707,
      "ach": 708,
      "Ġdis": 709,
      "ĠBut": 710,
      "Ġtim": 711,
      "Ġbl": 712,
      "Ġif": 713,
      "Ġroom": 714,
      "ress": 715,
      "ILL": 716,
      "Ġqu": 717,
      "Ġgoing": 718,
      "Ġsay": 719,
      "Ġdid": 720,
      "art": 721,
      "Ġor": 722,
      "ble": 723,
      "Ġsw": 724,
      "ĠThat": 725,
      "ure": 726,
      "Ġ1": 727,
      "ame": 728,
      "Ġsha": 729,
      "Ġsti": 730,
      "LO": 731,
      "ho": 732,
      "nt": 733,
      "uck": 734,
      "'d": 735,
      "UR": 736,
      "Ġsa": 737,
      "Ġwill": 738,
      "ning": 739,
      "ĠU": 740,
      "ree": 741,
      "Ġcha": 742,
      "Ġface": 743,
      "ĠCH": 744,
      "Ġtoward": 745,
      "Ġtime": 746,
      "ittle": 747,
      "ber": 748,
      "self": 749,
      "reat": 750,
      "Ġtwo": 751,
      "ody": 752,
      "FF": 753,
      "ks": 754,
      "aus": 755,
      "ACK": 756,
      "ONT": 757,
      "ation": 758,
      "tic": 759,
      "ins": 760,
      "VE": 761,
      "RO": 762,
      "ound": 763,
      "ile": 764,
      "hind": 765,
      "ings": 766,
      "ross": 767,
      "ere": 768,
      "ite": 769,
      "Ġbeen": 770,
      "Ġeyes": 771,
      "ches": 772,
      "Ġway": 773,
      "US": 774,
      "Ġgl": 775,
      "ys": 776,
      "KE": 777,
      "Ġapp": 778,
      "iss": 779,
      "Ġpull": 780,
      "ĠJO": 781,
      "bs": 782,
      "ĠMr": 783,
      "ĠAs": 784,
      "Ġpe": 785,
      "Ġdoes": 786,
      "IL": 787,
      "ted": 788,
      "IR": 789,
      "Ġpro": 790,
      "ICE": 791,
      "ip": 792,
      "th": 793,
      "ah": 794,
      "Ġwat": 795,
      "omet": 796,
      "Ġgra": 797,
      "per": 798,
      "Ġlittle": 799,
      "ters": 800,
      "ark": 801,
      "ment": 802,
      "ENT": 803,
      "able": 804,
      "Ġtakes": 805,
      "UN": 806,
      "ĠJo": 807,
      "ence": 808,
      "ave": 809,
      "omething": 810,
      "ĠThere": 811,
      "Ġmore": 812,
      "Ġcont": 813,
      "udd": 814,
      "IM": 815,
      "ĠCUT": 816,
      "ild": 817,
      "ms": 818,
      "Ġund": 819,
      "ĠON": 820,
      "ity": 821,
      "na": 822,
      "ny": 823,
      "ĠOh": 824,
      "GE": 825,
      "Ġwind": 826,
      "AND": 827,
      "Ġgood": 828,
      "ause": 829,
      "TER": 830,
      "ase": 831,
      "Ġstill": 832,
      "Ġwhen": 833,
      "Ġbehind": 834,
      "ct": 835,
      "ft": 836,
      "UD": 837,
      "Ġhold": 838,
      "RY": 839,
      "ĠMA": 840,
      "ob": 841,
      "ears": 842,
      "Ġwould": 843,
      "Ġput": 844,
      "lie": 845,
      "Ġch": 846,
      "Ġcl": 847,
      "ĠCONT": 848,
      "Ġcome": 849,
      "Ġlight": 850,
      "ee": 851,
      "ĠWell": 852,
      "os": 853,
      "Ġsomething": 854,
      "ĠThis": 855,
      "Ġtell": 856,
      "be": 857,
      "Ġevery": 858,
      "ath": 859,
      "Ġlong": 860,
      "Ġtake": 861,
      "Ġcall": 862,
      "Ġmom": 863,
      "Ġfir": 864,
      "ĠDon": 865,
      "ANT": 866,
      "Ġwhere": 867,
      "Ġem": 868,
      "side": 869,
      "here": 870,
      "ish": 871,
      "ĠIn": 872,
      "ARD": 873,
      "fore": 874,
      "ear": 875,
      "Ġam": 876,
      "ong": 877,
      "Ġstarts": 878,
      "ĠFR": 879,
      "Ġph": 880,
      "Ġim": 881,
      "Ġsl": 882,
      "Ġcou": 883,
      "Ġste": 884,
      "Ġshould": 885,
      "Ġtalk": 886,
      "ĠDo": 887,
      "ARL": 888,
      "Ġhands": 889,
      "Ġwork": 890,
      "Ġcould": 891,
      "hed": 892,
      "Ġche": 893,
      "ling": 894,
      "Ġtoo": 895,
      "ĠHow": 896,
      "fter": 897,
      "ort": 898,
      "RA": 899,
      "ood": 900,
      "thing": 901,
      "Ġhad": 902,
      "ich": 903,
      "OW": 904,
      "man": 905,
      "gg": 906,
      "ies": 907,
      "ĠThen": 908,
      "ĠWh": 909,
      "ose": 910,
      "CE": 911,
      "Ġlooking": 912,
      "fe": 913,
      "ets": 914,
      "wn": 915,
      "Ġbet": 916,
      "Ġour": 917,
      "ens": 918,
      "iz": 919,
      "Ġmake": 920,
      "Ġflo": 921,
      "ĠSo": 922,
      "ather": 923,
      "Ġfront": 924,
      "Ġ'": 925,
      "Ġfl": 926,
      "MAN": 927,
      "ST": 928,
      "Ġ[": 929,
      "Ġside": 930,
      "ALL": 931,
      "Ġcomes": 932,
      "Ġbu": 933,
      "ople": 934,
      "Ġonly": 935,
      "Ġwere": 936,
      "rying": 937,
      "red": 938,
      "ade": 939,
      "Ġmoment": 940,
      "Ġwalks": 941,
      "eah": 942,
      "Ġalo": 943,
      "Ġbefore": 944,
      "ouse": 945,
      "Ġtra": 946,
      "ise": 947,
      "ls": 948,
      "ĠAND": 949,
      "ces": 950,
      "Ġvery": 951,
      "av": 952,
      "Ġke": 953,
      "ful": 954,
      "Ġwindow": 955,
      "ĠRE": 956,
      "Ġlet": 957,
      "cks": 958,
      "INE": 959,
      "Ġmen": 960,
      "Ġpr": 961,
      "ĠMAR": 962,
      "pe": 963,
      "ign": 964,
      "Ġread": 965,
      "igh": 966,
      "ans": 967,
      "age": 968,
      "Ġthou": 969,
      "ĠMa": 970,
      "ries": 971,
      "Ġstre": 972,
      "ĠROOM": 973,
      "Ġhow": 974,
      "Ġstands": 975,
      "UL": 976,
      "AB": 977,
      "ord": 978,
      "Ġgoes": 979,
      "Ġres": 980,
      "udden": 981,
      "ner": 982,
      "Ġsec": 983,
      "ĠOF": 984,
      "aking": 985,
      "ERS": 986,
      "augh": 987,
      "Ġthan": 988,
      "Ġbot": 989,
      "Ġpulls": 990,
      "ching": 991,
      "Ġhu": 992,
      "gs": 993,
      "ĠCO": 994,
      "ĠSC": 995,
      "ious": 996,
      "Ġrem": 997,
      "ĠSc": 998,
      "Ġtable": 999,
      "Ġcomp": 1000,
      "Ġexp": 1001,
      "ĠCLO": 1002,
      "Ġmoves": 1003,
      "Ġacross": 1004,
      "Ġanother": 1005,
      "ĠJe": 1006,
      "Ġday": 1007,
      "ix": 1008,
      "Ġhapp": 1009,
      "Ġhel": 1010,
      "rd": 1011,
      "Ġbeg": 1012,
      "Ġdri": 1013,
      "ĠNow": 1014,
      "Ġsit": 1015,
      "Ġpeople": 1016,
      "Ġneed": 1017,
      "Ġgets": 1018,
      "Ġsmil": 1019,
      "ĠBO": 1020,
      "Ġold": 1021,
      "led": 1022,
      "hen": 1023,
      "ĠYes": 1024,
      "Ġsho": 1025,
      "Ġsits": 1026,
      "HER": 1027,
      "Ġreac": 1028,
      "Ġ2": 1029,
      "inu": 1030,
      "ollow": 1031,
      "Ġwr": 1032,
      "Ġnever": 1033,
      "Ġmu": 1034,
      "ĠCh": 1035,
      "ger": 1036,
      "uddenly": 1037,
      "Ġwhich": 1038,
      "Ġbr": 1039,
      "Ġfri": 1040,
      "Ġclos": 1041,
      "ĠSHOT": 1042,
      "Ġcor": 1043,
      "Ġfind": 1044,
      "Ġbed": 1045,
      "ĠHAR": 1046,
      "aw": 1047,
      "Ġfirst": 1048,
      "ĠYeah": 1049,
      "CT": 1050,
      "Ġsur": 1051,
      "Ġnew": 1052,
      "Ġhear": 1053,
      "NY": 1054,
      "Ġafter": 1055,
      "az": 1056,
      "ĠAn": 1057,
      "Ġpass": 1058,
      "ary": 1059,
      "Ġad": 1060,
      "kay": 1061,
      "Ġnight": 1062,
      "Ġru": 1063,
      "Ġwall": 1064,
      "Ġsees": 1065,
      "Ġblo": 1066,
      "Ġpre": 1067,
      "tor": 1068,
      "ION": 1069,
      "Ġrun": 1070,
      "ook": 1071,
      "ĠHis": 1072,
      "ĠNe": 1073,
      "OV": 1074,
      "xt": 1075,
      "Ġmean": 1076,
      "Ġdidn": 1077,
      "kes": 1078,
      "ĠDA": 1079,
      "Ġdoesn": 1080,
      "ĠMAN": 1081,
      "Ġunder": 1082,
      "Ġpick": 1083,
      "Ġplay": 1084,
      "Ġfloor": 1085,
      "ons": 1086,
      "Ġcontinu": 1087,
      "ian": 1088,
      "ĠBe": 1089,
      "Ġspe": 1090,
      "Ġfollow": 1091,
      "Ġeven": 1092,
      "ĠMR": 1093,
      "ĠIf": 1094,
      "Ġdr": 1095,
      "up": 1096,
      "Ġscre": 1097,
      "Ġshow": 1098,
      "light": 1099,
      "Ġte": 1100,
      "ph": 1101,
      "ĠHE": 1102,
      "Ġwom": 1103,
      "Ġbar": 1104,
      "ĠCLOSE": 1105,
      "ĠSta": 1106,
      "ĠLe": 1107,
      "ĠLE": 1108,
      "Ġdra": 1109,
      "Ġslow": 1110,
      "Ġfeel": 1111,
      "Ġfo": 1112,
      "ĠAll": 1113,
      "tain": 1114,
      "Ġbec": 1115,
      "ĠCAR": 1116,
      "!!": 1117,
      "ĠGod": 1118,
      "Ġarm": 1119,
      "Ġbeat": 1120,
      "HN": 1121,
      "ĠNot": 1122,
      "uff": 1123,
      "Ġlast": 1124,
      "Ġsk": 1125,
      "ĠJoh": 1126,
      "Ġphone": 1127,
      "orm": 1128,
      "mm": 1129,
      "get": 1130,
      "Ġagainst": 1131,
      "co": 1132,
      "Ġhouse": 1133,
      "ren": 1134,
      "Ġhimself": 1135,
      "Ġopens": 1136,
      "ĠSE": 1137,
      "OND": 1138,
      "OUN": 1139,
      "Ġgir": 1140,
      "Ġmuch": 1141,
      "ved": 1142,
      "body": 1143,
      "ĠWhy": 1144,
      "ect": 1145,
      "Ġhelp": 1146,
      "ike": 1147,
      "Ġfin": 1148,
      "ĠRe": 1149,
      "mo": 1150,
      "Ġlaugh": 1151,
      "Ġsil": 1152,
      "ĠJack": 1153,
      ".\"": 1154,
      "Ġthing": 1155,
      "ĠFran": 1156,
      "Ġwait": 1157,
      "Ġmove": 1158,
      "LA": 1159,
      "sh": 1160,
      "Ġnod": 1161,
      "ĠHar": 1162,
      "Ġ.": 1163,
      "Ġreal": 1164,
      "oney": 1165,
      "Ġreally": 1166,
      "ĠRo": 1167,
      "ated": 1168,
      "ICK": 1169,
      "we": 1170,
      "Ġnext": 1171,
      "UM": 1172,
      "Ġend": 1173,
      "Ġcra": 1174,
      "ily": 1175,
      "ned": 1176,
      "Ġpoin": 1177,
      "Ġstops": 1178,
      "ĠJE": 1179,
      "ĠANG": 1180,
      "onna": 1181,
      "ĠAR": 1182,
      "Ġblack": 1183,
      "Ġsound": 1184,
      "Ġfall": 1185,
      "Ġsmiles": 1186,
      "Ġsmall": 1187,
      "Ġcle": 1188,
      "ator": 1189,
      "AP": 1190,
      "ara": 1191,
      "me": 1192,
      "Ġdro": 1193,
      "rid": 1194,
      "ĠAm": 1195,
      "ANN": 1196,
      "ETT": 1197,
      "Ġfriend": 1198,
      "ial": 1199,
      "Ġlove": 1200,
      "Ġeach": 1201,
      "ĠJohn": 1202,
      "Ġgonna": 1203,
      "ĠVO": 1204,
      "Ġbre": 1205,
      "ue": 1206,
      "Ġbig": 1207,
      "Ġplace": 1208,
      "ĠLu": 1209,
      "Ġsaid": 1210,
      "TH": 1211,
      "Ġkill": 1212,
      "OUG": 1213,
      "Ġkid": 1214,
      "wer": 1215,
      "Ġlea": 1216,
      "Ġlife": 1217,
      "Ġgun": 1218,
      "ĠMay": 1219,
      "ough": 1220,
      "ler": 1221,
      "ĠDO": 1222,
      "Ġper": 1223,
      "ates": 1224,
      "ĠHey": 1225,
      "OO": 1226,
      "QU": 1227,
      "ĠAr": 1228,
      "ĠBILL": 1229,
      "Ġsteps": 1230,
      "ently": 1231,
      "Ġthought": 1232,
      "ĠBL": 1233,
      "ĠJOHN": 1234,
      "ĠSh": 1235,
      "ANE": 1236,
      "ĠCha": 1237,
      "ance": 1238,
      "ĠMy": 1239,
      "less": 1240,
      "Ġgi": 1241,
      "ĠDE": 1242,
      "ĠZ": 1243,
      "lly": 1244,
      "bb": 1245,
      "Ġinter": 1246,
      "Ġalong": 1247,
      "ĠLet": 1248,
      "ness": 1249,
      "Ġhor": 1250,
      "ten": 1251,
      "OP": 1252,
      "Ġpar": 1253,
      "tan": 1254,
      "tant": 1255,
      "ane": 1256,
      "Ġhome": 1257,
      "ying": 1258,
      "ĠROB": 1259,
      "Ġfeet": 1260,
      "Ġimp": 1261,
      "ĠJust": 1262,
      "ĠOn": 1263,
      "Ġstares": 1264,
      "ully": 1265,
      "ple": 1266,
      "ĠBAR": 1267,
      "Ġdead": 1268,
      "Ġstart": 1269,
      "ened": 1270,
      "vin": 1271,
      "Ġthree": 1272,
      "Ġtrying": 1273,
      "Ġnear": 1274,
      "ICH": 1275,
      "bo": 1276,
      "ĠOFF": 1277,
      "Ġwater": 1278,
      "Ġstreet": 1279,
      "OUSE": 1280,
      "Ġstra": 1281,
      "Ġtru": 1282,
      "ĠIs": 1283,
      "Ġnods": 1284,
      "ATE": 1285,
      "ĠWho": 1286,
      "OUS": 1287,
      "Ġfire": 1288,
      "Ġgive": 1289,
      "Ġfuck": 1290,
      "Ġdark": 1291,
      "Ġbus": 1292,
      "Ġputs": 1293,
      "ady": 1294,
      "ĠVOICE": 1295,
      "RI": 1296,
      "pt": 1297,
      "Ġvo": 1298,
      "ĠCAM": 1299,
      "eth": 1300,
      "ied": 1301,
      "Ġown": 1302,
      "Ġlist": 1303,
      "ĠJean": 1304,
      "Ġglass": 1305,
      "ĠWhere": 1306,
      "app": 1307,
      "ĠWH": 1308,
      "ĠBl": 1309,
      "ank": 1310,
      "io": 1311,
      "Ġdoing": 1312,
      "tive": 1313,
      "ĠCHARL": 1314,
      "res": 1315,
      "Ġfac": 1316,
      "Ġits": 1317,
      "ĠAl": 1318,
      "ĠPe": 1319,
      "Ġsure": 1320,
      "lease": 1321,
      "Ġwell": 1322,
      "Ġslowly": 1323,
      "VER": 1324,
      "ĠTo": 1325,
      "ĠSte": 1326,
      "ump": 1327,
      "Ġcrow": 1328,
      "ating": 1329,
      "ots": 1330,
      "ĠANGLE": 1331,
      "ISS": 1332,
      "ĠFRAN": 1333,
      "atter": 1334,
      "Ġmay": 1335,
      "Ġever": 1336,
      "Ġmakes": 1337,
      "ways": 1338,
      "Ġcoming": 1339,
      "ĠDON": 1340,
      "Ġleft": 1341,
      "Ġinside": 1342,
      "ERI": 1343,
      "Ġhard": 1344,
      "ey": 1345,
      "head": 1346,
      "ĠBR": 1347,
      "Ġhur": 1348,
      "room": 1349,
      "ents": 1350,
      "Ġbelie": 1351,
      "ĠLook": 1352,
      "ĠOne": 1353,
      "Ġcare": 1354,
      "ĠLU": 1355,
      "orry": 1356,
      "Ġmust": 1357,
      "cont": 1358,
      "Ġname": 1359,
      "Ġsecond": 1360,
      "Ġset": 1361,
      "ĠAL": 1362,
      "Ġmin": 1363,
      "Ġcour": 1364,
      "outh": 1365,
      "Ġser": 1366,
      "ĠSTE": 1367,
      "Ġcrowd": 1368,
      "Ġstop": 1369,
      "ction": 1370,
      "Ġthese": 1371,
      "Ġgrabs": 1372,
      "Ġdrink": 1373,
      "Ġgreat": 1374,
      "Ġbeing": 1375,
      "Ġappro": 1376,
      "Ġbur": 1377,
      "Ġreaches": 1378,
      "Ġwoman": 1379,
      "ONE": 1380,
      "Ġquick": 1381,
      "VIN": 1382,
      "ises": 1383,
      "ĠCo": 1384,
      "ton": 1385,
      "iet": 1386,
      "ams": 1387,
      "ĠFor": 1388,
      "ute": 1389,
      "Ġdress": 1390,
      "king": 1391,
      "Ġfew": 1392,
      "ried": 1393,
      "fer": 1394,
      "ĠBE": 1395,
      "Ġjo": 1396,
      "ATH": 1397,
      "old": 1398,
      "Ġbegins": 1399,
      "Ġbody": 1400,
      "Ġass": 1401,
      "Ġonto": 1402,
      "ife": 1403,
      "Ġwhite": 1404,
      "ĠMax": 1405,
      "ERT": 1406,
      "SON": 1407,
      "aring": 1408,
      "Ġword": 1409,
      "IA": 1410,
      "Ġstanding": 1411,
      "Ġanything": 1412,
      "Ġwhy": 1413,
      "Ġmoney": 1414,
      "IO": 1415,
      "irs": 1416,
      "umb": 1417,
      "Ġwon": 1418,
      "ETH": 1419,
      "LER": 1420,
      "itc": 1421,
      "Ġnothing": 1422,
      "Ġhang": 1423,
      "WAY": 1424,
      "Ġclose": 1425,
      "day": 1426,
      "Ġcam": 1427,
      "Ġboy": 1428,
      "Ġenters": 1429,
      "Ġholds": 1430,
      "ove": 1431,
      "Ġair": 1432,
      "IST": 1433,
      "Ġseen": 1434,
      "ĠSt": 1435,
      "Ġwhile": 1436,
      "MA": 1437,
      "ub": 1438,
      "Ġsign": 1439,
      "oug": 1440,
      "ĠTR": 1441,
      "ĠHel": 1442,
      "Ġpast": 1443,
      "ĠHA": 1444,
      "ART": 1445,
      "Ġruns": 1446,
      "ges": 1447,
      "oun": 1448,
      "Ġfar": 1449,
      "vers": 1450,
      "Ġbuild": 1451,
      "ater": 1452,
      "sp": 1453,
      "Ġcat": 1454,
      "lice": 1455,
      "dd": 1456,
      "Ġthrow": 1457,
      "Ġbetter": 1458,
      "ĠCHARLIE": 1459,
      "IAN": 1460,
      "Ġboth": 1461,
      "Ġtr": 1462,
      "ĠHARRY": 1463,
      "ĠCome": 1464,
      "ESS": 1465,
      "leep": 1466,
      "Ġpain": 1467,
      "IX": 1468,
      "ĠCar": 1469,
      "Ġfather": 1470,
      "Ġturn": 1471,
      "ĠHOUSE": 1472,
      "ĠWill": 1473,
      "pping": 1474,
      "Ġwatches": 1475,
      "Ġchild": 1476,
      "most": 1477,
      "Ġkne": 1478,
      "ĠBEN": 1479,
      "ĠPA": 1480,
      "ULL": 1481,
      "ĠNE": 1482,
      "ADE": 1483,
      "Ġhalf": 1484,
      "Ġyears": 1485,
      "ides": 1486,
      "Ġwar": 1487,
      "pped": 1488,
      "Ġsuddenly": 1489,
      "Ġel": 1490,
      "ĠRA": 1491,
      "ĠGood": 1492,
      "Ġrep": 1493,
      "SS": 1494,
      "ering": 1495,
      "ĠAt": 1496,
      "ash": 1497,
      "ĠLuke": 1498,
      "by": 1499,
      "til": 1500,
      "ards": 1501,
      "ĠThan": 1502,
      "ĠMAX": 1503,
      "med": 1504,
      "Ġbelieve": 1505,
      "tes": 1506,
      "ĠWhen": 1507,
      "ĠDoug": 1508,
      "ants": 1509,
      "aks": 1510,
      "Ġsays": 1511,
      "ĠOkay": 1512,
      "EST": 1513,
      "de": 1514,
      "Ġlead": 1515,
      "els": 1516,
      "Ġguy": 1517,
      "DER": 1518,
      "ĠChar": 1519,
      "Ġthose": 1520,
      "Ġgirl": 1521,
      "Ġsn": 1522,
      "ĠJACK": 1523,
      "Ġ3": 1524,
      "ĠLou": 1525,
      "mp": 1526,
      "Ġmar": 1527,
      "Ġcross": 1528,
      "Ġpicks": 1529,
      "Ġsir": 1530,
      "Ġthings": 1531,
      "ĠLA": 1532,
      "ĠMRS": 1533,
      "Ġkeep": 1534,
      "ris": 1535,
      "tur": 1536,
      "Ġemp": 1537,
      "INU": 1538,
      "OCK": 1539,
      "ĠMan": 1540,
      "ening": 1541,
      "ushes": 1542,
      "IDE": 1543,
      "Ġgetting": 1544,
      "tand": 1545,
      "Ġlar": 1546,
      "ude": 1547,
      "IND": 1548,
      "Ġyoung": 1549,
      "ĠPR": 1550,
      "ield": 1551,
      "ĠDOUG": 1552,
      "00": 1553,
      "Ġleave": 1554,
      "Ġalways": 1555,
      "ĠCAMER": 1556,
      "Ġsqu": 1557,
      "ĠEvery": 1558,
      "Ġdesk": 1559,
      "TON": 1560,
      "Ġhigh": 1561,
      "my": 1562,
      "Ġap": 1563,
      "gether": 1564,
      "Ġfi": 1565,
      "der": 1566,
      "Ġdire": 1567,
      "ĠHarry": 1568,
      "ĠWith": 1569,
      "ĠBU": 1570,
      "ĠMICH": 1571,
      "ible": 1572,
      "OLD": 1573,
      "GER": 1574,
      "Ġask": 1575,
      "Ġbreat": 1576,
      "Ġwatch": 1577,
      "ween": 1578,
      "Ġmother": 1579,
      "ĠCOR": 1580,
      "ASH": 1581,
      "ines": 1582,
      "ror": 1583,
      "Ġvoice": 1584,
      "Ġhat": 1585,
      "Ġbit": 1586,
      "aper": 1587,
      "Ġsame": 1588,
      "OTHER": 1589,
      "Ġsitting": 1590,
      "lic": 1591,
      "ĠSP": 1592,
      "ĠBond": 1593,
      "Ġbecause": 1594,
      "Ġlot": 1595,
      "Ġarms": 1596,
      "SH": 1597,
      "zz": 1598,
      "Ġpa": 1599,
      "Ġtalking": 1600,
      "Ġalmost": 1601,
      "Ġter": 1602,
      "Ġchan": 1603,
      "ĠBill": 1604,
      "unk": 1605,
      "MENT": 1606,
      "Ġkiss": 1607,
      "min": 1608,
      "Ġmade": 1609,
      "la": 1610,
      "Ġcut": 1611,
      "Ġele": 1612,
      "Ġshot": 1613,
      "ITH": 1614,
      "Ġwatching": 1615,
      "tions": 1616,
      "ĠGR": 1617,
      "right": 1618,
      "Ġ]": 1619,
      "ROOM": 1620,
      "Ġunders": 1621,
      "ail": 1622,
      "ĠLOU": 1623,
      "Ġground": 1624,
      "ĠMrs": 1625,
      "ident": 1626,
      "fully": 1627,
      "....": 1628,
      "Ġbetween": 1629,
      "Ġbad": 1630,
      "ĠAP": 1631,
      "ĠGo": 1632,
      "Ġtries": 1633,
      "ĠMic": 1634,
      "Ġforward": 1635,
      "ELL": 1636,
      "Ġtogether": 1637,
      "Ġkind": 1638,
      "Ġtop": 1639,
      "cus": 1640,
      "Ġans": 1641,
      "Ġmouth": 1642,
      "Ġsupp": 1643,
      "cer": 1644,
      "ĠBACK": 1645,
      "oo": 1646,
      "Ġoffice": 1647,
      "ĠMEL": 1648,
      "cking": 1649,
      "aby": 1650,
      "no": 1651,
      "Ġmus": 1652,
      "ĠMary": 1653,
      "vis": 1654,
      "Ġheard": 1655,
      "Ġworld": 1656,
      "ĠEll": 1657,
      "Ġsmile": 1658,
      "Ġchair": 1659,
      "Ġroll": 1660,
      "Ġlarge": 1661,
      "ma": 1662,
      "cho": 1663,
      "ATER": 1664,
      "Ġfam": 1665,
      "mb": 1666,
      "ĠHer": 1667,
      "ĠCan": 1668,
      "Ġaw": 1669,
      "ĠMICHA": 1670,
      "ously": 1671,
      "Ġtold": 1672,
      "ĠME": 1673,
      "idd": 1674,
      "ĠHO": 1675,
      "Ġhell": 1676,
      "Ġtowards": 1677,
      "Ġsorry": 1678,
      "ray": 1679,
      "ĠTw": 1680,
      "ĠFA": 1681,
      "cked": 1682,
      "Ġhair": 1683,
      "Ġblood": 1684,
      "ĠMICHAEL": 1685,
      "iness": 1686,
      "Ġ19": 1687,
      "ĠCONTINU": 1688,
      "ats": 1689,
      "ĠNew": 1690,
      "Ġconf": 1691,
      "PER": 1692,
      "Ġholding": 1693,
      "Ġfing": 1694,
      "ĠBet": 1695,
      "Ġoutside": 1696,
      "Ġenough": 1697,
      "Ġear": 1698,
      "ib": 1699,
      "ĠDR": 1700,
      "rist": 1701,
      "ush": 1702,
      "Ġsing": 1703,
      "ances": 1704,
      "ĠROBIN": 1705,
      "Ġred": 1706,
      "ĠJeanne": 1707,
      "ĠSome": 1708,
      "iew": 1709,
      "ĠInd": 1710,
      "ĠSU": 1711,
      "IKE": 1712,
      "MY": 1713,
      "ched": 1714,
      "ĠGe": 1715,
      "ANNE": 1716,
      "Ġlights": 1717,
      "Ġpart": 1718,
      "Ġgives": 1719,
      "ctor": 1720,
      "Ġfree": 1721,
      "ĠBo": 1722,
      "auti": 1723,
      "ember": 1724,
      "ĠCAMERA": 1725,
      "TLE": 1726,
      "ork": 1727,
      "of": 1728,
      "Ġins": 1729,
      "ĠDe": 1730,
      "Ġunderstand": 1731,
      "Ġbag": 1732,
      "Ġisn": 1733,
      "ĠFrank": 1734,
      "irt": 1735,
      "ITE": 1736,
      "ĠAre": 1737,
      "Ġmind": 1738,
      "Ġcorner": 1739,
      "Ġcover": 1740,
      "Ġ#": 1741,
      "Ġbox": 1742,
      "ĠBob": 1743,
      "Ġeverything": 1744,
      "Ġfigu": 1745,
      "so": 1746,
      "ĠBen": 1747,
      "LY": 1748,
      "ĠDAV": 1749,
      "Ġfour": 1750,
      "Ġline": 1751,
      "Ġeye": 1752,
      "Ġmor": 1753,
      "AK": 1754,
      "ĠDav": 1755,
      "Ġquickly": 1756,
      "ISE": 1757,
      "Ġhall": 1758,
      "Ġgre": 1759,
      "ĠSTRE": 1760,
      "ĠHo": 1761,
      "ĠOUT": 1762,
      "ĠWILL": 1763,
      "umps": 1764,
      "Ġquiet": 1765,
      "erv": 1766,
      "Ġcomm": 1767,
      "Ġmeet": 1768,
      "ĠSuddenly": 1769,
      "ĠGeor": 1770,
      "ĠYour": 1771,
      "com": 1772,
      "ang": 1773,
      "AH": 1774,
      "DY": 1775,
      "ĠTED": 1776,
      "cy": 1777,
      "Ġshit": 1778,
      "TOR": 1779,
      "ding": 1780,
      "ĠED": 1781,
      "ĠSTREET": 1782,
      "Ġfli": 1783,
      "ense": 1784,
      "ĠSe": 1785,
      "Ġhit": 1786,
      "Ġguys": 1787,
      "rin": 1788,
      "Ġmight": 1789,
      "als": 1790,
      "ĠAndy": 1791,
      "Ġbuilding": 1792,
      "Ġmoving": 1793,
      "Ġuntil": 1794,
      "hi": 1795,
      "ek": 1796,
      "ower": 1797,
      "Ġcontinues": 1798,
      "ĠLO": 1799,
      "enty": 1800,
      "Ġwhole": 1801,
      "rance": 1802,
      "gra": 1803,
      "tal": 1804,
      "ĠDid": 1805,
      "Ġwithout": 1806,
      "Ġresp": 1807,
      "Ġed": 1808,
      "Ġcur": 1809,
      "ring": 1810,
      "ĠPAT": 1811,
      "Ġroad": 1812,
      "IK": 1813,
      "Ġmiss": 1814,
      "ĠEN": 1815,
      "erson": 1816,
      "iant": 1817,
      "Ġswe": 1818,
      "Ġalone": 1819,
      "ĠDavid": 1820,
      "AGE": 1821,
      "ĠMELVIN": 1822,
      "Ġstud": 1823,
      "ĠVal": 1824,
      "Ġelse": 1825,
      "ĠDAVID": 1826,
      "UG": 1827,
      "IAL": 1828,
      "ĠSAM": 1829,
      "Ġwaiting": 1830,
      "ĠYOU": 1831,
      "ĠMARY": 1832,
      "Ġshakes": 1833,
      "ĠTV": 1834,
      "ik": 1835,
      "ually": 1836,
      "Ġothers": 1837,
      "Ġempty": 1838,
      "Ġfull": 1839,
      "Ġrest": 1840,
      "Ġabove": 1841,
      "rom": 1842,
      "Ġbook": 1843,
      "Ġson": 1844,
      "Ġdif": 1845,
      "ĠJEANNE": 1846,
      "ird": 1847,
      "ĠGet": 1848,
      "Ġexc": 1849,
      "ĠEM": 1850,
      "Ġinc": 1851,
      "Ġonce": 1852,
      "ORD": 1853,
      "ory": 1854,
      "aster": 1855,
      "Ġgone": 1856,
      "Ġland": 1857,
      "ung": 1858,
      "tance": 1859,
      "Ġtaking": 1860,
      "Ġpri": 1861,
      "ĠCap": 1862,
      "IP": 1863,
      "ical": 1864,
      "ier": 1865,
      "ĠDan": 1866,
      "ĠJOE": 1867,
      "Ġfill": 1868,
      "ĠChe": 1869,
      "Ġreve": 1870,
      "Ġrac": 1871,
      "ĠMaybe": 1872,
      "tely": 1873,
      "ĠCharlie": 1874,
      "ric": 1875,
      "ĠGE": 1876,
      "Ġfight": 1877,
      "Ġheads": 1878,
      "ISSOL": 1879,
      "ĠCOLE": 1880,
      "YN": 1881,
      "nie": 1882,
      "Ġent": 1883,
      "ĠPH": 1884,
      "Ġdone": 1885,
      "ister": 1886,
      "rie": 1887,
      "ĠEL": 1888,
      "Ġdec": 1889,
      "range": 1890,
      "Ġcourse": 1891,
      "ĠGeorge": 1892,
      "Ġ*": 1893,
      "ĠSam": 1894,
      "?!": 1895,
      "cing": 1896,
      "ĠDISSOL": 1897,
      "CA": 1898,
      "Ġblow": 1899,
      "ĠMe": 1900,
      "Ġtou": 1901,
      "AIN": 1902,
      "mer": 1903,
      "ows": 1904,
      "Ġappears": 1905,
      "lor": 1906,
      "Ġokay": 1907,
      "ĠSCH": 1908,
      "amp": 1909,
      "IV": 1910,
      "ĠELL": 1911,
      "Ġanswer": 1912,
      "ĠUP": 1913,
      "Ġrunning": 1914,
      "ĠCom": 1915,
      "Ġcoun": 1916,
      "ĠPeter": 1917,
      "IRE": 1918,
      "Ġbro": 1919,
      "ĠHEL": 1920,
      "Ġcoff": 1921,
      "Ġpay": 1922,
      "Ġwrong": 1923,
      "Ġpret": 1924,
      "Ġrec": 1925,
      "artment": 1926,
      "Ġdisapp": 1927,
      "ĠUn": 1928,
      "ĠMOR": 1929,
      "Ġboys": 1930,
      "ses": 1931,
      "Ġseems": 1932,
      "ĠChrist": 1933,
      "ture": 1934,
      "Ġclear": 1935,
      "PH": 1936,
      "Ġcons": 1937,
      "oth": 1938,
      "ready": 1939,
      "ĠBED": 1940,
      "ARTMENT": 1941,
      "ĠJes": 1942,
      "rick": 1943,
      "Ġhuge": 1944,
      "Ġton": 1945,
      "OTT": 1946,
      "Ġbaby": 1947,
      "ĠDISSOLVE": 1948,
      "ANTE": 1949,
      "Ġdrops": 1950,
      "ames": 1951,
      "Ġtruck": 1952,
      "KY": 1953,
      "Ġ4": 1954,
      "ndred": 1955,
      "Ġsomeone": 1956,
      "ĠDANTE": 1957,
      "Ġclim": 1958,
      "Ġfalls": 1959,
      "ĠBu": 1960,
      "Ġremember": 1961,
      "Ġob": 1962,
      "ĠMel": 1963,
      "Ġwhis": 1964,
      "pl": 1965,
      "Ġenter": 1966,
      "Ġcontro": 1967,
      "Ġdeep": 1968,
      "REE": 1969,
      "BER": 1970,
      "RAN": 1971,
      "ĠRAND": 1972,
      "Ġshoulder": 1973,
      "ĠBetty": 1974,
      "Ġpie": 1975,
      "alc": 1976,
      "Ġshut": 1977,
      "ĠGEOR": 1978,
      "Ġpress": 1979,
      "ĠEmm": 1980,
      "tie": 1981,
      "Ġmost": 1982,
      "andhi": 1983,
      "OUND": 1984,
      "Ġalready": 1985,
      "ĠJesus": 1986,
      "Ġstay": 1987,
      "aps": 1988,
      "cc": 1989,
      "ips": 1990,
      "Ġretur": 1991,
      "iv": 1992,
      "ony": 1993,
      "ĠBr": 1994,
      "Ġstru": 1995,
      "Ġsleep": 1996,
      "Ġind": 1997,
      "ĠGU": 1998,
      "ĠGandhi": 1999,
      "ITCH": 2000,
      "Ġcoll": 2001,
      "Ġfoot": 2002,
      "ENE": 2003,
      "Ġbegin": 2004,
      "Ġsli": 2005,
      "Ġwalking": 2006,
      "ĠPET": 2007,
      "ALC": 2008,
      "ĠOFFICE": 2009,
      "Ġmany": 2010,
      "ĠKATE": 2011,
      "Ġpic": 2012,
      "KER": 2013,
      "ared": 2014,
      "ĠCONTINUOUS": 2015,
      "int": 2016,
      "Ġhot": 2017,
      "Ġglances": 2018,
      "ining": 2019,
      "era": 2020,
      "cket": 2021,
      "key": 2022,
      "ddie": 2023,
      "Ġques": 2024,
      "ĠGEORGE": 2025,
      "ĠMo": 2026,
      "Ġcho": 2027,
      "ĠPOV": 2028,
      "aces": 2029,
      "Ġbusiness": 2030,
      "for": 2031,
      "ener": 2032,
      "Ġpan": 2033,
      "ĠEddie": 2034,
      "unny": 2035,
      "ĠJEFF": 2036,
      "where": 2037,
      "Ġbra": 2038,
      "add": 2039,
      "Ġsaw": 2040,
      "Ġplease": 2041,
      "Ġgrou": 2042,
      "ends": 2043,
      "ĠJANE": 2044,
      "Ġguess": 2045,
      "Ġleans": 2046,
      "Ġes": 2047,
      "Ġseat": 2048,
      "ĠAPARTMENT": 2049,
      "NING": 2050,
      "ĠJUD": 2051,
      "ATOR": 2052,
      "KEY": 2053,
      "Ġhundred": 2054,
      "rious": 2055,
      "ĠPat": 2056,
      "Ġstaring": 2057,
      "IXON": 2058,
      "ĠTwo": 2059,
      "BO": 2060,
      "ĠNIXON": 2061,
      "Ġwife": 2062,
      ".]": 2063,
      "ual": 2064,
      "Ġ5": 2065,
      "ĠQU": 2066,
      "ĠCL": 2067,
      "Ġsub": 2068,
      "Ġready": 2069,
      "Ġloud": 2070,
      "eps": 2071,
      "Ġscene": 2072,
      "ĠSEC": 2073,
      "cle": 2074,
      "Ġscreen": 2075,
      "Ġain": 2076,
      "Ġball": 2077,
      "Ġkno": 2078,
      "Ġview": 2079,
      "autiful": 2080,
      "ĠCOM": 2081,
      "arl": 2082,
      "Ġahead": 2083,
      "Ġbes": 2084,
      "Ġwearing": 2085,
      "form": 2086,
      "Ġide": 2087,
      "Ġhum": 2088,
      "ĠMike": 2089,
      "dam": 2090,
      "Ġstraight": 2091,
      "ca": 2092,
      "ined": 2093,
      "ĠDr": 2094,
      "ping": 2095,
      "IB": 2096,
      "Ġtry": 2097,
      "Ġbreath": 2098,
      "GON": 2099,
      "oking": 2100,
      "ĠFRANK": 2101,
      "ĠMicha": 2102,
      "ax": 2103,
      "Ġcr": 2104,
      "Ġsix": 2105,
      "ret": 2106,
      "Ġmaking": 2107,
      "Ġfive": 2108,
      "veral": 2109,
      "ĠFOR": 2110,
      "ĠThank": 2111,
      "umber": 2112,
      "ize": 2113,
      "iously": 2114,
      "ĠTer": 2115,
      "Ġten": 2116,
      "Ġtre": 2117,
      "Ġlow": 2118,
      "iling": 2119,
      "Ġemb": 2120,
      "Ġpoint": 2121,
      "Ġthough": 2122,
      "ky": 2123,
      "eric": 2124,
      "Ġpaper": 2125,
      "ced": 2126,
      "ors": 2127,
      "ĠWE": 2128,
      "Ġreveal": 2129,
      "ĠBETT": 2130,
      "Ġstuff": 2131,
      "OMAN": 2132,
      "Ġmorning": 2133,
      "orrow": 2134,
      "Ġcig": 2135,
      "ape": 2136,
      "Ġcomple": 2137,
      "ĠJOHNNY": 2138,
      "ĠJIM": 2139,
      "ATION": 2140,
      "Ġchar": 2141,
      "Ġdog": 2142,
      "Ġdoll": 2143,
      "Ġlate": 2144,
      "Ġwond": 2145,
      "ĠTed": 2146,
      "Ġdraw": 2147,
      "Ġev": 2148,
      "rack": 2149,
      "ĠEx": 2150,
      "AC": 2151,
      "ĠBOND": 2152,
      "Ġherself": 2153,
      "ait": 2154,
      "men": 2155,
      "ĠHALL": 2156,
      "aming": 2157,
      "Ġcount": 2158,
      "ĠDU": 2159,
      "lain": 2160,
      "ĠAmeric": 2161,
      "ĠLouis": 2162,
      "thes": 2163,
      "Ġsun": 2164,
      "Ġyet": 2165,
      "ASS": 2166,
      "Ġworking": 2167,
      "ĠTRA": 2168,
      "ĠMichael": 2169,
      "ĠBETTY": 2170,
      "DA": 2171,
      "DIE": 2172,
      "Ġsy": 2173,
      "Ġpur": 2174,
      "Ġref": 2175,
      "Ġpolice": 2176,
      "ĠANDY": 2177,
      "ĠBar": 2178,
      "ĠWAL": 2179,
      "Ġthrows": 2180,
      "Ġfore": 2181,
      "ĠPo": 2182,
      "Ġfigure": 2183,
      "du": 2184,
      "ither": 2185,
      "ience": 2186,
      "ming": 2187,
      "Ġperson": 2188,
      "aches": 2189,
      "Ġleaves": 2190,
      "Ġbest": 2191,
      "Ġwanted": 2192,
      "Ġsurp": 2193,
      "Ġhappened": 2194,
      "ral": 2195,
      "Ġstairs": 2196,
      "ists": 2197,
      "Ġeas": 2198,
      "Ġyourself": 2199,
      "ĠTW": 2200,
      "Ġdoors": 2201,
      "CTOR": 2202,
      "Ġpack": 2203,
      "ĠRa": 2204,
      "Ġwouldn": 2205,
      "Ġcoffee": 2206,
      "Ġvis": 2207,
      "Ġshad": 2208,
      "ĠAT": 2209,
      "Ġbeautiful": 2210,
      "ĠFrom": 2211,
      "ĠCAROL": 2212,
      "itchen": 2213,
      "UP": 2214,
      "Ġang": 2215,
      "Ġacc": 2216,
      "ĠScot": 2217,
      "Ġfur": 2218,
      "ĠLATER": 2219,
      "ĠVAL": 2220,
      "Ġcouple": 2221,
      "tly": 2222,
      "ited": 2223,
      "ours": 2224,
      "ĠBLACK": 2225,
      "IZ": 2226,
      "ures": 2227,
      "Ġfriends": 2228,
      "Ġmaybe": 2229,
      "ished": 2230,
      "ĠMiss": 2231,
      "ĠCAP": 2232,
      "ĠELE": 2233,
      "ĠMelvin": 2234,
      "ever": 2235,
      "Ġmach": 2236,
      "Ġext": 2237,
      "Ġgroup": 2238,
      "ĠHere": 2239,
      "Ġbull": 2240,
      "Ġneck": 2241,
      "Ġpres": 2242,
      "Ġexplo": 2243,
      "Ġcre": 2244,
      "Ġpause": 2245,
      "Ġlive": 2246,
      "Ġgotta": 2247,
      "Ġchildren": 2248,
      "ones": 2249,
      "Ġpark": 2250,
      "leas": 2251,
      "Ġsin": 2252,
      "Ġknows": 2253,
      "Ġpos": 2254,
      "Ġcloses": 2255,
      "Ġhorse": 2256,
      "Ġbat": 2257,
      "ĠMIKE": 2258,
      "ĠPres": 2259,
      "Ġkitchen": 2260,
      "Ġedge": 2261,
      "orn": 2262,
      "Ġdiffer": 2263,
      "EY": 2264,
      "ĠBOY": 2265,
      "ĠPAUL": 2266,
      "ĠEDDIE": 2267,
      "Ġcame": 2268,
      "ĠEli": 2269,
      "Ġsilence": 2270,
      "ĠGu": 2271,
      "Ġjob": 2272,
      "ĠEng": 2273,
      "ĠSCOTT": 2274,
      "Ġlif": 2275,
      "ELD": 2276,
      "Ġrad": 2277,
      "itch": 2278,
      "Ġclothes": 2279,
      "Ġkids": 2280,
      "Ġyes": 2281,
      "ĠDAN": 2282,
      "RIS": 2283,
      "Ġali": 2284,
      "ANS": 2285,
      "Ġpasses": 2286,
      "chool": 2287,
      "ĠQ": 2288,
      "Ġfucking": 2289,
      "ĠWHITE": 2290,
      "Ġdressed": 2291,
      "BY": 2292,
      "Ġbath": 2293,
      "Ġmatter": 2294,
      "ERE": 2295,
      ".)": 2296,
      "the": 2297,
      "Ġwood": 2298,
      "Ġcab": 2299,
      "Ġact": 2300,
      "tically": 2301,
      "Ġcontinuing": 2302,
      "Ġbreak": 2303,
      "Ġliving": 2304,
      "Ġbeside": 2305,
      "iddle": 2306,
      "VEN": 2307,
      "ĠPETER": 2308,
      "aret": 2309,
      "ĠSim": 2310,
      "Ġnice": 2311,
      "Ġfollows": 2312,
      "lish": 2313,
      "alm": 2314,
      "Ġcloser": 2315,
      "Ġwords": 2316,
      "Ġidea": 2317,
      "Ġnotic": 2318,
      "sel": 2319,
      "Ġmusic": 2320,
      "Ġtoday": 2321,
      "Ġatta": 2322,
      "Ġdistance": 2323,
      "uth": 2324,
      "unch": 2325,
      "Ġlaughs": 2326,
      "ĠLUKE": 2327,
      "Ġ8": 2328,
      "ĠBEDROOM": 2329,
      "Ġschool": 2330,
      "vel": 2331,
      "Ġdef": 2332,
      "Ġalso": 2333,
      "Ġuse": 2334,
      "tention": 2335,
      "ĠSp": 2336,
      "IF": 2337,
      "Ġfine": 2338,
      "lder": 2339,
      "ĠSu": 2340,
      "ask": 2341,
      "Ġdirection": 2342,
      "Ġfamily": 2343,
      "Ġtor": 2344,
      "Ġhits": 2345,
      "ĠSir": 2346,
      "Ġpoints": 2347,
      "ĠHAN": 2348,
      "pper": 2349,
      "NIE": 2350,
      "oke": 2351,
      "Ġdan": 2352,
      "Ġfa": 2353,
      "EC": 2354,
      "tim": 2355,
      "ĠSy": 2356,
      "Ġdep": 2357,
      "Ġint": 2358,
      "Ġheart": 2359,
      "LAINE": 2360,
      "Ġreg": 2361,
      "Ġplan": 2362,
      "AST": 2363,
      "Ġminute": 2364,
      "YST": 2365,
      "nel": 2366,
      "Ġnerv": 2367,
      "OLM": 2368,
      "Ġsky": 2369,
      "UDE": 2370,
      "gon": 2371,
      "Ġfast": 2372,
      "irg": 2373,
      "ult": 2374,
      "Ġbrother": 2375,
      "Ġtonight": 2376,
      "Ġpower": 2377,
      "atch": 2378,
      "Ġlater": 2379,
      "Ġpretty": 2380,
      "ĠSIM": 2381,
      "ISH": 2382,
      "ĠMALC": 2383,
      "ĠELAINE": 2384,
      "Ġcold": 2385,
      "Ġdays": 2386,
      "Ġyear": 2387,
      "ĠOr": 2388,
      "zy": 2389,
      "Ġheav": 2390,
      "Ġlim": 2391,
      "ason": 2392,
      "Ġreads": 2393,
      "Ġcamera": 2394,
      "ĠMALCOLM": 2395,
      "UCK": 2396,
      "Ġdeal": 2397,
      "WN": 2398,
      "ĠWOMAN": 2399,
      "Ġspeed": 2400,
      "des": 2401,
      "Ġmiddle": 2402,
      "Ġwants": 2403,
      "ĠSA": 2404,
      "ĠHan": 2405,
      "ging": 2406,
      "ĠCON": 2407,
      "abe": 2408,
      "ĠLUC": 2409,
      "RICK": 2410,
      "Ġsim": 2411,
      "Ġmon": 2412,
      "Ġlost": 2413,
      "Ġwasn": 2414,
      "Ġapproaches": 2415,
      "ug": 2416,
      "Ġfly": 2417,
      "Ġfound": 2418,
      "irty": 2419,
      "ĠHELEN": 2420,
      "Ġplaying": 2421,
      "Ġwomen": 2422,
      "ĠPresident": 2423,
      "Ġkick": 2424,
      "Ġused": 2425,
      "Ġfinally": 2426,
      "ĠVIK": 2427,
      "Ġrises": 2428,
      "Ġbottle": 2429,
      "ley": 2430,
      "Ġstrugg": 2431,
      "Ġsight": 2432,
      "ĠVEN": 2433,
      "Ġjumps": 2434,
      "Ġemer": 2435,
      "ze": 2436,
      "Ġmil": 2437,
      "ably": 2438,
      "ĠDAVE": 2439,
      "Ġtele": 2440,
      "ired": 2441,
      "Ġhaving": 2442,
      "Ġbring": 2443,
      "Ġspeak": 2444,
      "Ġparty": 2445,
      "Ġdrive": 2446,
      "ken": 2447,
      "Ġcase": 2448,
      "Ġeng": 2449,
      "ĠDEAN": 2450,
      "Ġknew": 2451,
      "Ġapartment": 2452,
      "The": 2453,
      "utes": 2454,
      "ARK": 2455,
      "Ġtwenty": 2456,
      "ery": 2457,
      "ĠJim": 2458,
      "NIGHT": 2459,
      "Ġ6": 2460,
      "Ġcli": 2461,
      "ĠPlease": 2462,
      "Ġtrou": 2463,
      "Ġslight": 2464,
      "ĠAfter": 2465,
      "OUR": 2466,
      "Ġpocket": 2467,
      "Ġhope": 2468,
      "ression": 2469,
      "ĠVIKTOR": 2470,
      "Ġwent": 2471,
      "ĠIS": 2472,
      "ĠTra": 2473,
      "ĠMOTHER": 2474,
      "ages": 2475,
      "ĠBUD": 2476,
      "ĠLEE": 2477,
      "Ġcontrol": 2478,
      "Ġship": 2479,
      "ACH": 2480,
      "ĠSara": 2481,
      "ĠVirg": 2482,
      "ĠMORNING": 2483,
      "TY": 2484,
      "Ġgr": 2485,
      "Ġprot": 2486,
      "ĠHAW": 2487,
      "OON": 2488,
      "ĠRob": 2489,
      "ĠKate": 2490,
      "Ġphot": 2491,
      "ĠDEL": 2492,
      "ume": 2493,
      "ĠNEW": 2494,
      "Ġpushes": 2495,
      "let": 2496,
      "Ġbelow": 2497,
      "ĠRight": 2498,
      "land": 2499,
      "Ġma": 2500,
      "ĠROGER": 2501,
      "Ġdist": 2502,
      "Ġnumber": 2503,
      "cept": 2504,
      "irror": 2505,
      "Ġsold": 2506,
      "Ġhears": 2507,
      "Ġattention": 2508,
      "ecause": 2509,
      "\".": 2510,
      "Ġfif": 2511,
      "Ġsuch": 2512,
      "fied": 2513,
      "Ġshoot": 2514,
      "fra": 2515,
      "Ġ?": 2516,
      "ĠBIAL": 2517,
      "YSTOCK": 2518,
      "ĠBIALYSTOCK": 2519,
      "Ġdie": 2520,
      "Ġfil": 2521,
      "ITTLE": 2522,
      "osed": 2523,
      "Ġmess": 2524,
      "rily": 2525,
      "Ġgrow": 2526,
      "iam": 2527,
      "Ġdam": 2528,
      "Ġcir": 2529,
      "ĠMu": 2530,
      "ending": 2531,
      "ĠWo": 2532,
      "Ġsaying": 2533,
      "ĠJoe": 2534,
      "Ġcrosses": 2535,
      "IAM": 2536,
      "iot": 2537,
      "Ġchang": 2538,
      "Ġfra": 2539,
      "tice": 2540,
      "Ġthr": 2541,
      "uring": 2542,
      "ĠFO": 2543,
      "Ġjack": 2544,
      "ĠPro": 2545,
      "ĠCaptain": 2546,
      "DAY": 2547,
      "tern": 2548,
      "ison": 2549,
      "ĠMar": 2550,
      "Ġstep": 2551,
      "Ġadd": 2552,
      "Ġ&": 2553,
      "Ġdre": 2554,
      "ashes": 2555,
      "ARON": 2556,
      "LD": 2557,
      "ĠTE": 2558,
      "Ġleg": 2559,
      "Ġproble": 2560,
      "ĠWoody": 2561,
      "ITY": 2562,
      "KMAN": 2563,
      "MS": 2564,
      "ĠIT": 2565,
      "Ġtom": 2566,
      "RANCE": 2567,
      "Ġcigaret": 2568,
      "ĠHaw": 2569,
      "ĠJA": 2570,
      "Ġarea": 2571,
      "URE": 2572,
      "Ġgas": 2573,
      "ĠFADE": 2574,
      "ped": 2575,
      "ĠDave": 2576,
      "ĠJeff": 2577,
      "Ġ7": 2578,
      "Ġopp": 2579,
      "ĠBecause": 2580,
      "ĠPri": 2581,
      "Ġreach": 2582,
      "Ġscra": 2583,
      "Ġcalled": 2584,
      "hh": 2585,
      "ĠAny": 2586,
      "ATHER": 2587,
      "Ġsoft": 2588,
      "bert": 2589,
      "Ġmachine": 2590,
      "ount": 2591,
      "Ġinst": 2592,
      "Ġposs": 2593,
      "Ġarri": 2594,
      "ira": 2595,
      "Ġseveral": 2596,
      "ĠTake": 2597,
      "ĠLike": 2598,
      "OTH": 2599,
      "UST": 2600,
      "ĠHAWKEY": 2601,
      "ĠTell": 2602,
      "Ġapproach": 2603,
      "ĠVENKMAN": 2604,
      "ĠHAWKEYE": 2605,
      "Ġmag": 2606,
      "LET": 2607,
      "Ġprom": 2608,
      "Ġremain": 2609,
      "Ġleaving": 2610,
      "gn": 2611,
      "lex": 2612,
      "ictor": 2613,
      "ĠHello": 2614,
      "Ġtears": 2615,
      "ĠNED": 2616,
      "Ġguard": 2617,
      "Ġago": 2618,
      "----": 2619,
      "ĠVirgil": 2620,
      "iny": 2621,
      "ĠHOW": 2622,
      "ately": 2623,
      "ball": 2624,
      "Ġla": 2625,
      "Ġpiece": 2626,
      "ffic": 2627,
      "Ġkilled": 2628,
      "ĠLOUIS": 2629,
      "Ġspace": 2630,
      "Ġexits": 2631,
      "ations": 2632,
      "Ġfaces": 2633,
      "Ġpicture": 2634,
      "Ġcouldn": 2635,
      "ĠJohnny": 2636,
      "ĠEnglish": 2637,
      "sta": 2638,
      "ĠJAR": 2639,
      "Ġgirls": 2640,
      "Ġgaz": 2641,
      "ĠRoger": 2642,
      "Ġtrans": 2643,
      "Ġdeath": 2644,
      "ĠSCOTTIE": 2645,
      "Ġtown": 2646,
      "Ġreco": 2647,
      "Ġspec": 2648,
      "ĠIndy": 2649,
      "rugs": 2650,
      "ĠNothing": 2651,
      "Ġfinger": 2652,
      "DING": 2653,
      "Ġfield": 2654,
      "ĠHi": 2655,
      "ĠAM": 2656,
      "ERSON": 2657,
      "Ġspeaks": 2658,
      "ĠAlvin": 2659,
      "Ġweek": 2660,
      "ĠStar": 2661,
      "sit": 2662,
      "ĠRus": 2663,
      "ORE": 2664,
      "Ġsoon": 2665,
      "ĠWILLIAM": 2666,
      "GU": 2667,
      "cent": 2668,
      "ĠSm": 2669,
      "ĠBLO": 2670,
      "POR": 2671,
      "used": 2672,
      "Ġdoorway": 2673,
      "fraid": 2674,
      "Ġtomorrow": 2675,
      "Ġfood": 2676,
      "ĠBAS": 2677,
      "ENCE": 2678,
      "LEY": 2679,
      "Ġoffic": 2680,
      "ĠOFFIC": 2681,
      "IVE": 2682,
      "Ġshout": 2683,
      "Ġlets": 2684,
      "Ġcarrying": 2685,
      "Ġsword": 2686,
      "Ġwrit": 2687,
      "Ġclean": 2688,
      "selves": 2689,
      "Ġaud": 2690,
      "Ġhaven": 2691,
      "ĠDOOR": 2692,
      "ĠWait": 2693,
      "ĠTHREE": 2694,
      "Ġquite": 2695,
      "po": 2696,
      "Ġhangs": 2697,
      "Ġring": 2698,
      "Ġreading": 2699,
      "inner": 2700,
      "Ġdeser": 2701,
      "ĠFL": 2702,
      "ousand": 2703,
      "isto": 2704,
      "Ġtook": 2705,
      "Ġpor": 2706,
      "ĠRome": 2707,
      "aken": 2708,
      "ĠUN": 2709,
      "enter": 2710,
      "yle": 2711,
      "Ġmain": 2712,
      "Ġgame": 2713,
      "Ġatt": 2714,
      "INER": 2715,
      "Ġquestion": 2716,
      "entle": 2717,
      "ĠTWO": 2718,
      "mper": 2719,
      "Ġsmiling": 2720,
      "ĠHelen": 2721,
      "Ġir": 2722,
      "Ġce": 2723,
      "Ġhon": 2724,
      "ĠCR": 2725,
      "Ġhar": 2726,
      "ĠFin": 2727,
      "Ġcoat": 2728,
      "Ġblue": 2729,
      "Ġorder": 2730,
      "Ġcalls": 2731,
      "ties": 2732,
      "ĠMED": 2733,
      "Ġstr": 2734,
      "Ġmyself": 2735,
      "anna": 2736,
      "ils": 2737,
      "Ġchange": 2738,
      "Ġbow": 2739,
      "Ġyell": 2740,
      "ĠCA": 2741,
      "Ġtight": 2742,
      "race": 2743,
      "Ġmirror": 2744,
      "ĠSM": 2745,
      "Ġcounter": 2746,
      "ĠSID": 2747,
      "END": 2748,
      "cha": 2749,
      "Ġchest": 2750,
      "Ġwonder": 2751,
      "ĠTER": 2752,
      "ĠSto": 2753,
      "Ġinv": 2754,
      "ĠCAT": 2755,
      "Ġty": 2756,
      "iner": 2757,
      "Ġafraid": 2758,
      "ĠTIM": 2759,
      "che": 2760,
      "Ġround": 2761,
      "Ġcity": 2762,
      "Ġhappy": 2763,
      "ĠCAPT": 2764,
      "Ġdou": 2765,
      "ĠEARL": 2766,
      "Ġwheel": 2767,
      "ĠRANDAL": 2768,
      "ged": 2769,
      "ior": 2770,
      "ulo": 2771,
      "Ġhesit": 2772,
      "Ġturning": 2773,
      "arth": 2774,
      "OUGH": 2775,
      "Ġphoto": 2776,
      "ĠSure": 2777,
      "ĠMO": 2778,
      "ĠOf": 2779,
      "ONG": 2780,
      "Ġterri": 2781,
      "Ġentrance": 2782,
      "more": 2783,
      "ĠBARRY": 2784,
      "ĠGra": 2785,
      "ilo": 2786,
      "sing": 2787,
      "Ġcop": 2788,
      "Ġcalling": 2789,
      "Ġfinds": 2790,
      "Ġhurt": 2791,
      "ĠDUDE": 2792,
      "Ġroof": 2793,
      "Ġthinking": 2794,
      "FTER": 2795,
      "Ġmass": 2796,
      "ĠSCRE": 2797,
      "ridge": 2798,
      "Ġquietly": 2799,
      "Ġbathroom": 2800,
      "BS": 2801,
      "cher": 2802,
      "orts": 2803,
      "Ġform": 2804,
      "ĠVIR": 2805,
      "Ġspl": 2806,
      "ĠGUARD": 2807,
      "Ġthousand": 2808,
      "ĠGO": 2809,
      "OTEL": 2810,
      "board": 2811,
      "TMAN": 2812,
      "ina": 2813,
      "ZZ": 2814,
      "mit": 2815,
      "Ġband": 2816,
      "ĠMom": 2817,
      "ĠSHARON": 2818,
      "ĠScottie": 2819,
      "Ġdifferent": 2820,
      "ĠSW": 2821,
      "ett": 2822,
      "Ġjump": 2823,
      "ĠSTEVE": 2824,
      "GIE": 2825,
      "lt": 2826,
      "zen": 2827,
      "Ġcars": 2828,
      "onth": 2829,
      "FFY": 2830,
      "Ġbedroom": 2831,
      "ĠLOVE": 2832,
      "ĠDUR": 2833,
      "IRL": 2834,
      "Ġlaw": 2835,
      "Ġeff": 2836,
      "ĠTHEL": 2837,
      "aught": 2838,
      "ĠUh": 2839,
      "ĠFAITH": 2840,
      "ĠTHELMA": 2841,
      "Ġve": 2842,
      "Ġpisto": 2843,
      "Ġslams": 2844,
      "Ġsince": 2845,
      "ĠVIRG": 2846,
      "mond": 2847,
      "Ġraises": 2848,
      "Ġradio": 2849,
      "ĠQu": 2850,
      "Ġgod": 2851,
      "Ġthinks": 2852,
      "Ġamong": 2853,
      "Ġmis": 2854,
      "ĠSha": 2855,
      "OME": 2856,
      "Ġcheck": 2857,
      "Ġbott": 2858,
      "SP": 2859,
      "YLE": 2860,
      "ital": 2861,
      "ĠSee": 2862,
      "irst": 2863,
      "Ġlies": 2864,
      "Ġshirt": 2865,
      "LLY": 2866,
      "ĠEmma": 2867,
      "ĠPL": 2868,
      "Ġeveryone": 2869,
      "table": 2870,
      "ĠFIR": 2871,
      "ĠJackie": 2872,
      "ron": 2873,
      "Ġz": 2874,
      "ised": 2875,
      "ĠDES": 2876,
      "Ġeat": 2877,
      "ĠJake": 2878,
      "Ġstrange": 2879,
      "Ġvan": 2880,
      "Ġsink": 2881,
      "Ġdoctor": 2882,
      "Ġsear": 2883,
      "ular": 2884,
      "Ġstore": 2885,
      "Ġfingers": 2886,
      "rief": 2887,
      "Ġlay": 2888,
      "too": 2889,
      "Ġshort": 2890,
      "ĠSykes": 2891,
      "ground": 2892,
      "not": 2893,
      "Ġstory": 2894,
      "Ġsmoke": 2895,
      "ected": 2896,
      "Ġpulling": 2897,
      "Ġice": 2898,
      "teen": 2899,
      "ĠAnother": 2900,
      "ĠWilliam": 2901,
      "Ġwild": 2902,
      "Ġbare": 2903,
      "Ġcreat": 2904,
      "ĠWOO": 2905,
      "ĠPE": 2906,
      "ĠNed": 2907,
      "SIDE": 2908,
      "Ġmonth": 2909,
      "Ġcas": 2910,
      "ĠWITH": 2911,
      "OWN": 2912,
      "rench": 2913,
      "Ġbas": 2914,
      "Ġcap": 2915,
      "ĠHen": 2916,
      "olm": 2917,
      "ĠBlack": 2918,
      "ĠThanks": 2919,
      "SY": 2920,
      "Ġlegs": 2921,
      "Ġtrue": 2922,
      "ĠBlade": 2923,
      "ĠChew": 2924,
      "auses": 2925,
      "Ġcorrid": 2926,
      "ĠMEM": 2927,
      "Ġesc": 2928,
      "Ġtaken": 2929,
      "ĠCRO": 2930,
      "ALLY": 2931,
      "ĠBuzz": 2932,
      "Ġcountry": 2933,
      "Ġnotices": 2934,
      "ĠHIS": 2935,
      "ĠHave": 2936,
      "ĠHAM": 2937,
      "ICA": 2938,
      "ĠVIRGIL": 2939,
      "Ġcell": 2940,
      "ĠSAR": 2941,
      "ĠHal": 2942,
      "ARY": 2943,
      "Ġbreaks": 2944,
      "ĠDude": 2945,
      "Ġva": 2946,
      "Ġplane": 2947,
      "Ġelev": 2948,
      "Ġmill": 2949,
      "Ġgave": 2950,
      "ĠMAY": 2951,
      "ĠWal": 2952,
      "Ġlisten": 2953,
      "Ġposition": 2954,
      "mas": 2955,
      "Ġtoss": 2956,
      "INT": 2957,
      "ILLY": 2958,
      "Ġlaughing": 2959,
      "Ġkisses": 2960,
      "Ġ9": 2961,
      "Ġtri": 2962,
      "ĠROBINSON": 2963,
      "PS": 2964,
      "ĠCon": 2965,
      "Ġworry": 2966,
      "ection": 2967,
      "Ġminutes": 2968,
      "ĠGer": 2969,
      "Ġlips": 2970,
      "fic": 2971,
      "ium": 2972,
      "Ġgest": 2973,
      "bbing": 2974,
      "keye": 2975,
      "BI": 2976,
      "IELD": 2977,
      "Ġwin": 2978,
      "Ġcenter": 2979,
      "tire": 2980,
      "ires": 2981,
      "AKIN": 2982,
      "ĠQUI": 2983,
      "Ġpleas": 2984,
      "ĠLau": 2985,
      "Ġstare": 2986,
      "ABE": 2987,
      "ĠBOB": 2988,
      "Ġsurround": 2989,
      "Ġnews": 2990,
      "ĠHawkeye": 2991,
      "read": 2992,
      "ising": 2993,
      "ishes": 2994,
      "ANG": 2995,
      "Ġexpression": 2996,
      "ĠMulder": 2997,
      "Ġdance": 2998,
      "ĠMalc": 2999,
      "iding": 3000,
      "Ġdrives": 3001,
      "ĠBilly": 3002,
      "ĠMalcolm": 3003,
      "Ġmed": 3004,
      "Ġglo": 3005,
      "urch": 3006,
      "Ġkeeps": 3007,
      "vo": 3008,
      "Ġsal": 3009,
      "ĠSen": 3010,
      "ĠSOUND": 3011,
      "ĠGIRL": 3012,
      "Ġrear": 3013,
      "ĠVik": 3014,
      "Ġhuman": 3015,
      "Ġheavy": 3016,
      "Ġtree": 3017,
      "Ġcard": 3018,
      "ĠVictor": 3019,
      "ĠLeia": 3020,
      "ĠROBERT": 3021,
      "ĠHenry": 3022,
      "Ġrip": 3023,
      "Ġmur": 3024,
      "MOND": 3025,
      "ĠMars": 3026,
      "ONY": 3027,
      "ement": 3028,
      "ANTZ": 3029,
      "Ġcer": 3030,
      "Ġcrazy": 3031,
      "ĠARCH": 3032,
      "Ġproblem": 3033,
      "ashing": 3034,
      "ĠJer": 3035,
      "Ġswings": 3036,
      "Ġwindows": 3037,
      "ĠRAILLY": 3038,
      "Ġlifts": 3039,
      "ĠRed": 3040,
      "ions": 3041,
      "Ġpool": 3042,
      "Ġtimes": 3043,
      "Ġslides": 3044,
      "ERIOR": 3045,
      "media": 3046,
      "line": 3047,
      "ĠAD": 3048,
      "ĠANAKIN": 3049,
      "ĠElliot": 3050,
      "IVING": 3051,
      "Ġtrouble": 3052,
      "ov": 3053,
      "ĠList": 3054,
      "ects": 3055,
      "Ġlistening": 3056,
      "rought": 3057,
      "ically": 3058,
      "Ġfear": 3059,
      "Ġanyone": 3060,
      "Ġleads": 3061,
      "inc": 3062,
      "ĠSETH": 3063,
      "ĠAMY": 3064,
      "ĠPOL": 3065,
      "ECT": 3066,
      "VIS": 3067,
      "ENN": 3068,
      "eneral": 3069,
      "ĠINTER": 3070,
      "Ġsuit": 3071,
      "Ġwaits": 3072,
      "Ġimmedia": 3073,
      "Ġrealiz": 3074,
      "ĠChristmas": 3075,
      "CES": 3076,
      "ĠDu": 3077,
      "Ġlying": 3078,
      "cep": 3079,
      "Ġspot": 3080,
      "Ġsounds": 3081,
      "ĠWALTER": 3082,
      "Ġign": 3083,
      "enny": 3084,
      "ĠCRE": 3085,
      "ĠValiant": 3086,
      "ĠIns": 3087,
      "ĠNO": 3088,
      "Ġrock": 3089,
      "actly": 3090,
      "ought": 3091,
      "Ġwide": 3092,
      "Ġflow": 3093,
      "ĠHOWARD": 3094,
      "zab": 3095,
      "Ġhus": 3096,
      "Ġslightly": 3097,
      "urious": 3098,
      "Ġsna": 3099,
      "racks": 3100,
      "aughter": 3101,
      "Ġblank": 3102,
      "Ġcorridor": 3103,
      "go": 3104,
      "ATT": 3105,
      "Ġeasy": 3106,
      "owns": 3107,
      "ushing": 3108,
      "ĠLOVELL": 3109,
      "Ġelevator": 3110,
      "zabeth": 3111,
      "VEL": 3112,
      "Ġsong": 3113,
      "Ġbuck": 3114,
      "ader": 3115,
      "ills": 3116,
      "Ġkey": 3117,
      "Ġcatches": 3118,
      "ĠLaura": 3119,
      "Ġtun": 3120,
      "ration": 3121,
      "ĠLIVING": 3122,
      "UND": 3123,
      "Ġclass": 3124,
      "Ġwra": 3125,
      "Ġluck": 3126,
      "ĠElizabeth": 3127,
      "Ġjacket": 3128,
      "WARD": 3129,
      "ĠMc": 3130,
      "ĠCla": 3131,
      "Ġwaves": 3132,
      "Ġadv": 3133,
      "Ġdarkness": 3134,
      "Ġclimbs": 3135,
      "ĠFinally": 3136,
      "Ġpistol": 3137,
      "yer": 3138,
      "Ġrif": 3139,
      "Ġfeeling": 3140,
      "tantly": 3141,
      "eks": 3142,
      "ĠARE": 3143,
      "ĠEle": 3144,
      "Ġplaces": 3145,
      "fect": 3146,
      "ĠJEFFERSON": 3147,
      "bably": 3148,
      "aked": 3149,
      "ney": 3150,
      "ĠLAUR": 3151,
      "band": 3152,
      "Ġmod": 3153,
      "ĠEveryone": 3154,
      "jo": 3155,
      "any": 3156,
      "Ġeither": 3157,
      "Ġmov": 3158,
      "ĠBLOOM": 3159,
      "een": 3160,
      "sy": 3161,
      "Ġleast": 3162,
      "ĠLeop": 3163,
      "ĠRobert": 3164,
      "till": 3165,
      "ĠTom": 3166,
      "ĠSL": 3167,
      "ĠSchind": 3168,
      "ĠELLIE": 3169,
      ",\"": 3170,
      "log": 3171,
      "aden": 3172,
      "Ġweap": 3173,
      "NE": 3174,
      "iol": 3175,
      "ria": 3176,
      "gust": 3177,
      "Ġban": 3178,
      "ĠLITTLE": 3179,
      "ĠJud": 3180,
      "Ġflash": 3181,
      "!!!": 3182,
      "THUR": 3183,
      "Ġburst": 3184,
      "Ġcalm": 3185,
      "Ġeight": 3186,
      "ĠLa": 3187,
      "Ġseem": 3188,
      "apers": 3189,
      "ments": 3190,
      "minator": 3191,
      "ĠLeopold": 3192,
      "ĠSchindler": 3193,
      "ĠAUG": 3194,
      "ĠAFTER": 3195,
      "Ġstage": 3196,
      "ĠVIC": 3197,
      "ĠRomeo": 3198,
      "uh": 3199,
      "rim": 3200,
      "Ġnose": 3201,
      "ĠLouise": 3202,
      "ĠChewie": 3203,
      "ANDH": 3204,
      "Ġhuh": 3205,
      "ĠTIME": 3206,
      "ale": 3207,
      "Ġya": 3208,
      "ĠDel": 3209,
      "ĠRom": 3210,
      "ĠRATH": 3211,
      "like": 3212,
      "Ġletter": 3213,
      "ĠARTHUR": 3214,
      "ITCHEN": 3215,
      "UB": 3216,
      "Ġcry": 3217,
      "Ġpol": 3218,
      "ĠMer": 3219,
      "Ġcamp": 3220,
      "bor": 3221,
      "cess": 3222,
      "pes": 3223,
      "zes": 3224,
      "Ġprep": 3225,
      "Ġchance": 3226,
      "Ġcigarette": 3227,
      "ĠJu": 3228,
      "ĠJES": 3229,
      "ĠSCENE": 3230,
      "Ġfeels": 3231,
      "Ġbrought": 3232,
      "omb": 3233,
      "ĠFri": 3234,
      "Ġconcer": 3235,
      "Ġaren": 3236,
      "Ġsurpris": 3237,
      "ĠPOLICE": 3238,
      "ĠHOTEL": 3239,
      "ĠAg": 3240,
      "ime": 3241,
      "ĠKe": 3242,
      "Ġtruth": 3243,
      "ĠLOUISE": 3244,
      "Ġsupposed": 3245,
      "Ġindic": 3246,
      "ĠHIGH": 3247,
      "Ġstri": 3248,
      "TERS": 3249,
      "Ġwalls": 3250,
      "ĠJESUS": 3251,
      "GL": 3252,
      "yond": 3253,
      "Ġsent": 3254,
      "Ġdinner": 3255,
      "Ġgentle": 3256,
      "ote": 3257,
      "Ġrushes": 3258,
      "ĠKITCHEN": 3259,
      "Ġfollowed": 3260,
      "ĠALL": 3261,
      "ĠBET": 3262,
      "ĠThel": 3263,
      "cuse": 3264,
      "ĠComm": 3265,
      "clo": 3266,
      "Ġsle": 3267,
      "Ġbrief": 3268,
      "Ġpen": 3269,
      "Ġmeans": 3270,
      "Ġclosed": 3271,
      "ĠOnly": 3272,
      "Ġrolls": 3273,
      "Ġwhisper": 3274,
      "ACRO": 3275,
      "und": 3276,
      "Ġmid": 3277,
      "ellow": 3278,
      "ounds": 3279,
      "ĠAmy": 3280,
      "ĠDELACRO": 3281,
      "ĠDELACROIX": 3282,
      "NOON": 3283,
      "OK": 3284,
      "Ġdest": 3285,
      "ĠPRO": 3286,
      "LEX": 3287,
      "Ġnearby": 3288,
      "abez": 3289,
      "itor": 3290,
      "ĠSil": 3291,
      "ĠAlex": 3292,
      "lyn": 3293,
      "ĠJabez": 3294,
      "ĠOVER": 3295,
      "Ġstun": 3296,
      "ief": 3297,
      "Ġopening": 3298,
      "Ġbecom": 3299,
      "ĠAmerican": 3300,
      "ĠCAPTAIN": 3301,
      "ĠSLO": 3302,
      "ĠCE": 3303,
      "ĠDad": 3304,
      "ĠOLD": 3305,
      "ĠKID": 3306,
      "Ġsweet": 3307,
      "Ġfun": 3308,
      "Ġforg": 3309,
      "Ġhappen": 3310,
      "Ġimmediately": 3311,
      "haps": 3312,
      "Ġfix": 3313,
      "Ġpauses": 3314,
      "ĠFROM": 3315,
      "ĠThelma": 3316,
      "ĠPh": 3317,
      "ĠGL": 3318,
      "ĠMARSH": 3319,
      "Ġfollowing": 3320,
      "ĠSO": 3321,
      "Ġbeer": 3322,
      "Ġlock": 3323,
      "Ġmoon": 3324,
      "vision": 3325,
      "arra": 3326,
      "Ġyeah": 3327,
      "aning": 3328,
      "ĠCAS": 3329,
      "Ġload": 3330,
      "Ġknife": 3331,
      "Ġguards": 3332,
      "Ġconsid": 3333,
      "CUT": 3334,
      "FORD": 3335,
      "now": 3336,
      "uter": 3337,
      "Ġsets": 3338,
      "ĠSeth": 3339,
      "ĠNICK": 3340,
      "Ġscreams": 3341,
      "Ġaudience": 3342,
      "Ġgate": 3343,
      "ĠFa": 3344,
      "Ġrel": 3345,
      "Ġgold": 3346,
      "Ġlear": 3347,
      "Ġstrong": 3348,
      "IOUS": 3349,
      "ered": 3350,
      "ĠHAL": 3351,
      "uts": 3352,
      "boy": 3353,
      "Ġfact": 3354,
      "ĠSteve": 3355,
      "Ġrecord": 3356,
      "PHIS": 3357,
      "ĠMEMPHIS": 3358,
      "ĠListen": 3359,
      "Ġbene": 3360,
      "ĠMISS": 3361,
      "Ġexit": 3362,
      "IDGE": 3363,
      "Ġreturns": 3364,
      "ĠElliott": 3365,
      "cious": 3366,
      "Ġaff": 3367,
      "ese": 3368,
      "Ġwip": 3369,
      "Ġocc": 3370,
      "imus": 3371,
      "Ġcloud": 3372,
      "ĠALVIN": 3373,
      "Ġdirect": 3374,
      "Ġgreen": 3375,
      "Ġfilled": 3376,
      "Ġcompletely": 3377,
      "ĠJAKE": 3378,
      "IUM": 3379,
      "sol": 3380,
      "Ġop": 3381,
      "ĠSid": 3382,
      "ĠJane": 3383,
      "Ġnote": 3384,
      "Ġworks": 3385,
      "ABETH": 3386,
      "Ġdriver": 3387,
      "Ġtouch": 3388,
      "IZABETH": 3389,
      "fess": 3390,
      "gan": 3391,
      "Ġentire": 3392,
      "Ġrain": 3393,
      "Ġsilent": 3394,
      "ĠELIZABETH": 3395,
      "Ġnervous": 3396,
      "ĠCATES": 3397,
      "pers": 3398,
      "Ġsick": 3399,
      "Ġfro": 3400,
      "Ġfires": 3401,
      "uffy": 3402,
      "Ġimpor": 3403,
      "ĠTerminator": 3404,
      "Ġdollars": 3405,
      "IER": 3406,
      "iver": 3407,
      "walk": 3408,
      "Ġsat": 3409,
      "ĠMUL": 3410,
      "ĠFATHER": 3411,
      "REY": 3412,
      "ĠBy": 3413,
      "Ġmetal": 3414,
      "urity": 3415,
      "Ġdev": 3416,
      "Ġchecks": 3417,
      "ĠDanny": 3418,
      "Ġsense": 3419,
      "...?": 3420,
      "ĠFirst": 3421,
      "Ġsex": 3422,
      "ssa": 3423,
      "Ġsuper": 3424,
      "ested": 3425,
      "Ġ12": 3426,
      "Ġtelling": 3427,
      "phone": 3428,
      "ĠCarol": 3429,
      "Ġhate": 3430,
      "Ġbroken": 3431,
      "ĠWA": 3432,
      "vern": 3433,
      "ĠGANDH": 3434,
      "Ġcool": 3435,
      "Ġanymore": 3436,
      "Ġshaking": 3437,
      "ĠHEAD": 3438,
      "Ġhanging": 3439,
      "Ġclimb": 3440,
      "ĠGANDHI": 3441,
      "AIR": 3442,
      "Ġpat": 3443,
      "ĠAG": 3444,
      "ĠEd": 3445,
      "ĠANOTHER": 3446,
      "Ġalive": 3447,
      "OS": 3448,
      "mber": 3449,
      "Ġcup": 3450,
      "Ġdesper": 3451,
      "ĠLittle": 3452,
      "Ġbecome": 3453,
      "ishing": 3454,
      "ĠSorry": 3455,
      "Ġasleep": 3456,
      "Ġmark": 3457,
      "rill": 3458,
      "ĠHER": 3459,
      "ĠBud": 3460,
      "ĠCHRIS": 3461,
      "ĠBUIL": 3462,
      "ĠAUGGIE": 3463,
      "Ġbright": 3464,
      "ective": 3465,
      "gging": 3466,
      "Ġcontinue": 3467,
      "ĠLEOP": 3468,
      "umbles": 3469,
      "Ġtrees": 3470,
      "ĠLEOPOLD": 3471,
      "EP": 3472,
      "Ġsus": 3473,
      "Ġsand": 3474,
      "ĠDUN": 3475,
      "ĠPer": 3476,
      "ĠPAD": 3477,
      "Ġdrop": 3478,
      "Ġsinging": 3479,
      "tered": 3480,
      "Ġhole": 3481,
      "aged": 3482,
      "ized": 3483,
      "Ġprison": 3484,
      "ĠMULDER": 3485,
      "rise": 3486,
      "Ġid": 3487,
      "ĠCl": 3488,
      "ĠRASH": 3489,
      "Ġthank": 3490,
      "ĠArtoo": 3491,
      "SSA": 3492,
      "graph": 3493,
      "Ġmine": 3494,
      "Ġhour": 3495,
      "ĠDOWN": 3496,
      "ĠLes": 3497,
      "ĠOT": 3498,
      "ĠYOUN": 3499,
      "Ġcannot": 3500,
      "Ġable": 3501,
      "Ġviol": 3502,
      "CTION": 3503,
      "phis": 3504,
      "Ġcatch": 3505,
      "ĠRASHID": 3506,
      "ĠRED": 3507,
      "abb": 3508,
      "Ġguns": 3509,
      "Ġanyway": 3510,
      "Ġlonger": 3511,
      "Ġelect": 3512,
      "addy": 3513,
      "ĠDURRANCE": 3514,
      "come": 3515,
      "ially": 3516,
      "ĠTur": 3517,
      "tains": 3518,
      "velo": 3519,
      "astic": 3520,
      "igg": 3521,
      "Ġshar": 3522,
      "Ġshows": 3523,
      "ĠAFTERNOON": 3524,
      "Ġsurprised": 3525,
      "ĠBUILDING": 3526,
      "IANT": 3527,
      "enta": 3528,
      "tiv": 3529,
      "ĠDRA": 3530,
      "ids": 3531,
      "Ġreason": 3532,
      "ender": 3533,
      "Ġ10": 3534,
      "ĠDonnie": 3535,
      "Ġmarried": 3536,
      "Ġhusband": 3537,
      "time": 3538,
      "ĠSec": 3539,
      "ĠSUS": 3540,
      "ĠPaden": 3541,
      "ĠOut": 3542,
      "Ġshrugs": 3543,
      "Ġseeing": 3544,
      "Ġglasses": 3545,
      "ino": 3546,
      "ĠSY": 3547,
      "ĠHam": 3548,
      "ĠGIB": 3549,
      "Ġexper": 3550,
      "ĠANN": 3551,
      "Ġunif": 3552,
      "Ġstret": 3553,
      "Ġdriving": 3554,
      "ĠPATRICK": 3555,
      "Ġoppos": 3556,
      "sc": 3557,
      "ares": 3558,
      "ĠMem": 3559,
      "ĠMOV": 3560,
      "Ġmet": 3561,
      "Ġlab": 3562,
      "ĠOR": 3563,
      "Ġforget": 3564,
      "Ġstation": 3565,
      "Ġperfect": 3566,
      ".'": 3567,
      "enn": 3568,
      "iar": 3569,
      "Ġwish": 3570,
      "Ġgro": 3571,
      "ĠMUN": 3572,
      "ettes": 3573,
      "ĠTheir": 3574,
      "Ġbutton": 3575,
      "Ġstarted": 3576,
      "rant": 3577,
      "ĠThree": 3578,
      "play": 3579,
      "Ġslips": 3580,
      "Ġangry": 3581,
      "Ġaim": 3582,
      "Ġsou": 3583,
      "Ġdia": 3584,
      "Ġobs": 3585,
      "Ġlit": 3586,
      "Ġless": 3587,
      "Ġtrain": 3588,
      "rey": 3589,
      "ĠMal": 3590,
      "Ġthro": 3591,
      "ressed": 3592,
      "Ġfright": 3593,
      "ĠBeat": 3594,
      "ĠSteiner": 3595,
      "Ġcovered": 3596,
      "ĠHALLWAY": 3597,
      "Ġdream": 3598,
      "ĠOFFICER": 3599,
      "IAT": 3600,
      "aven": 3601,
      "hall": 3602,
      "gun": 3603,
      "Ġlad": 3604,
      "uty": 3605,
      "Ġride": 3606,
      "Ġremo": 3607,
      "ACE": 3608,
      "do": 3609,
      "iers": 3610,
      "Ġmad": 3611,
      "ĠMUS": 3612,
      "ĠCOL": 3613,
      "ĠDun": 3614,
      "Ġequ": 3615,
      "ĠGRE": 3616,
      "ĠYork": 3617,
      "Ġanim": 3618,
      "Ġexactly": 3619,
      "ixon": 3620,
      "ĠWOODY": 3621,
      "ĠARCHER": 3622,
      "Ġdaughter": 3623,
      "Ġnur": 3624,
      "INS": 3625,
      "Ġlie": 3626,
      "stem": 3627,
      "Ġdisc": 3628,
      "Ġeverybody": 3629,
      "Ġserious": 3630,
      "ĠBUFFY": 3631,
      "Ġshadow": 3632,
      "UNDERS": 3633,
      "gth": 3634,
      "uc": 3635,
      "you": 3636,
      "Ġer": 3637,
      "ĠNixon": 3638,
      "RED": 3639,
      "Ġturned": 3640,
      "Ġswing": 3641,
      "etson": 3642,
      "Ġjoin": 3643,
      "laine": 3644,
      "ĠRafe": 3645,
      "Ġdamn": 3646,
      "Ġhesitates": 3647,
      "Ġsigh": 3648,
      "ĠPULL": 3649,
      "ENS": 3650,
      "ĠREPOR": 3651,
      "tory": 3652,
      "Ġgiving": 3653,
      "Ġcirc": 3654,
      "ĠViktor": 3655,
      "ĠSUSAN": 3656,
      "face": 3657,
      "Ġtall": 3658,
      "Ġboard": 3659,
      "Ġprobably": 3660,
      "Ġbrings": 3661,
      "ĠMaya": 3662,
      "Ġknees": 3663,
      "ĠSCHIND": 3664,
      "ĠSAUNDERS": 3665,
      "BB": 3666,
      "Ġwanna": 3667,
      "Ġgently": 3668,
      "ĠHEN": 3669,
      "anta": 3670,
      "Ġputting": 3671,
      "Ġbattle": 3672,
      "ĠSCHINDLER": 3673,
      "CO": 3674,
      "ians": 3675,
      "Ġdust": 3676,
      "Ġbase": 3677,
      "Ġlady": 3678,
      "ĠFULL": 3679,
      "unt": 3680,
      "ient": 3681,
      "ica": 3682,
      "ĠSTEINER": 3683,
      "ĠBrother": 3684,
      "arrass": 3685,
      "ĠYOUNG": 3686,
      "BE": 3687,
      "CER": 3688,
      "ĠAIR": 3689,
      "ĠBets": 3690,
      "ĠDam": 3691,
      "Ġthemselves": 3692,
      "Ġexam": 3693,
      "Ġrather": 3694,
      "ĠBILLY": 3695,
      "ĠSECOND": 3696,
      "ply": 3697,
      "ĠOur": 3698,
      "ĠFrench": 3699,
      "Ġscreaming": 3700,
      "bye": 3701,
      "ĠELLEN": 3702,
      "ĠMARK": 3703,
      "Ġcarefully": 3704,
      "ests": 3705,
      "Ġdig": 3706,
      "Ġble": 3707,
      "Ġpu": 3708,
      "ĠPl": 3709,
      "Ġseated": 3710,
      "upid": 3711,
      "ĠDUFF": 3712,
      "Ġrecogn": 3713,
      "wh": 3714,
      "Ġ:": 3715,
      "Ġet": 3716,
      "Ġtro": 3717,
      "Ġsort": 3718,
      "ingly": 3719,
      "Ġfre": 3720,
      "ĠAh": 3721,
      "ĠJetson": 3722,
      "ĠEarl": 3723,
      "Ġcomputer": 3724,
      "000": 3725,
      "Ġdisappears": 3726,
      "Ġsnaps": 3727,
      "ĠBetsy": 3728,
      "ĠSomething": 3729,
      "ĠCates": 3730,
      "ature": 3731,
      "ĠLIE": 3732,
      "ĠPLA": 3733,
      "ĠFather": 3734,
      "ĠFrances": 3735,
      "ĠCORR": 3736,
      "Ġimportant": 3737,
      "Ġsad": 3738,
      "ENER": 3739,
      "ĠKAT": 3740,
      "Ġsomebody": 3741,
      "ĠSAME": 3742,
      "ĠVALIANT": 3743,
      "ĠFrida": 3744,
      "Ġoper": 3745,
      "anks": 3746,
      "ĠDI": 3747,
      "ĠVIO": 3748,
      "ĠSTANTZ": 3749,
      "Ġ17": 3750,
      "Ġobv": 3751,
      "ĠVIOLET": 3752,
      "Ġtem": 3753,
      "Ġtow": 3754,
      "Ġnotice": 3755,
      "Ġstick": 3756,
      "Ġleaps": 3757,
      "ĠEmmett": 3758,
      "rik": 3759,
      "ĠTONY": 3760,
      "Ġgrin": 3761,
      "ĠLord": 3762,
      "ASAR": 3763,
      "Ġ18": 3764,
      "ĠFRANCES": 3765,
      "ĠELECT": 3766,
      "times": 3767,
      "ĠMemphis": 3768,
      "ĠWes": 3769,
      "ĠErik": 3770,
      "ARE": 3771,
      "ITLE": 3772,
      "Ġexcept": 3773,
      "Ġtrail": 3774,
      "Ġhallway": 3775,
      "damn": 3776,
      "Ġcertain": 3777,
      "ĠFRANCESCA": 3778,
      "RET": 3779,
      "Ġill": 3780,
      "Ġhours": 3781,
      "ann": 3782,
      "Ġbell": 3783,
      "ĠGot": 3784,
      "ĠVader": 3785,
      "ĠMiche": 3786,
      "FT": 3787,
      "rate": 3788,
      "ĠElaine": 3789,
      "ĠPEN": 3790,
      "INA": 3791,
      "ĠROAD": 3792,
      "ĠEllie": 3793,
      "ĠSarah": 3794,
      "Ġrifle": 3795,
      "cia": 3796,
      "ĠFLO": 3797,
      "ices": 3798,
      "ĠKat": 3799,
      "IANO": 3800,
      "Ġsnow": 3801,
      "ero": 3802,
      "ĠALEX": 3803,
      "Ġhosp": 3804,
      "ERIK": 3805,
      "Ġactually": 3806,
      "Ġtape": 3807,
      "Ġcru": 3808,
      "Ġcaught": 3809,
      "ĠMac": 3810,
      "ette": 3811,
      "ATCH": 3812,
      "IEW": 3813,
      "ĠALICE": 3814,
      "Ġasked": 3815,
      "ĠPHONE": 3816,
      "ĠMUSIC": 3817,
      "!\"": 3818,
      "ĠERIK": 3819,
      "tering": 3820,
      "Ġglow": 3821,
      "ĠINTO": 3822,
      "ADY": 3823,
      "ĠMaximus": 3824,
      "ĠFrancesca": 3825,
      "ility": 3826,
      "ĠKing": 3827,
      "ĠPatrick": 3828,
      "Ġstunned": 3829,
      "ĠHENRY": 3830,
      "FE": 3831,
      "GLER": 3832,
      "ati": 3833,
      "Ġcow": 3834,
      "Ġcand": 3835,
      "ĠSN": 3836,
      "arm": 3837,
      "Ġinf": 3838,
      "ĠMon": 3839,
      "Ġbacks": 3840,
      "ĠTHR": 3841,
      "Ġbuy": 3842,
      "ĠSteed": 3843,
      "Ġdanger": 3844,
      "ency": 3845,
      "Ġcrack": 3846,
      "ĠAS": 3847,
      "ĠRUS": 3848,
      "rup": 3849,
      "Ġ20": 3850,
      "ĠChris": 3851,
      "EE": 3852,
      "GEN": 3853,
      "ench": 3854,
      "ĠCor": 3855,
      "ĠOK": 3856,
      "usted": 3857,
      "Ġscared": 3858,
      "Ġappear": 3859,
      "ĠFRID": 3860,
      "Ġshoulders": 3861,
      "Ġpriv": 3862,
      "Ġembarrass": 3863,
      "Ġopposite": 3864,
      "ĠAd": 3865,
      "ĠWOR": 3866,
      "ĠGeneral": 3867,
      "ĠVen": 3868,
      "ager": 3869,
      "Ġblind": 3870,
      "Ġsingle": 3871,
      "Ġattack": 3872,
      "Ġsusp": 3873,
      "ives": 3874,
      "ores": 3875,
      "ĠBuffy": 3876,
      "ĠWould": 3877,
      "Ġuh": 3878,
      "lies": 3879,
      "ics": 3880,
      "Ġconvers": 3881,
      "ALY": 3882,
      "ĠSTUD": 3883,
      "ĠREB": 3884,
      "Ġplays": 3885,
      "ĠEMMA": 3886,
      "Ġhotel": 3887,
      "Ġsystem": 3888,
      "Ġbeneath": 3889,
      "ME": 3890,
      "Ġearth": 3891,
      "ĠJABE": 3892,
      "ston": 3893,
      "ĠJABEZ": 3894,
      "PIO": 3895,
      "ĠPARK": 3896,
      "Ġworried": 3897,
      "URN": 3898,
      "Ġgrand": 3899,
      "Ġengine": 3900,
      "Ġaddress": 3901,
      "ĠCEASAR": 3902,
      "ĠMON": 3903,
      "Ġrelie": 3904,
      "roud": 3905,
      "IDOR": 3906,
      "ĠFIRST": 3907,
      "Ġtosses": 3908,
      "ĠMarshall": 3909,
      "Ġhospital": 3910,
      "OOL": 3911,
      "su": 3912,
      "Ġsens": 3913,
      "Ġbridge": 3914,
      "ĠDRI": 3915,
      "Ġje": 3916,
      "Ġparked": 3917,
      "ĠTHREEPIO": 3918,
      "KES": 3919,
      "ĠStill": 3920,
      "ift": 3921,
      "Ġyours": 3922,
      "Ġchurch": 3923,
      "ĠFRONT": 3924,
      "Ġpati": 3925,
      "ĠHolly": 3926,
      "Ġrevealing": 3927,
      "Ġfifty": 3928,
      "Ġceiling": 3929,
      "Ġbarely": 3930,
      "long": 3931,
      "Ġwound": 3932,
      "riz": 3933,
      "Ġboat": 3934,
      "ĠPeople": 3935,
      "Ġflying": 3936,
      "Ġframe": 3937,
      "ZA": 3938,
      "sion": 3939,
      "Ġcu": 3940,
      "ĠAb": 3941,
      "ĠMother": 3942,
      "Ġbeyond": 3943,
      "Ġstupid": 3944,
      "Ġdrinks": 3945,
      "ĠLAURA": 3946,
      "RU": 3947,
      "Ġ!": 3948,
      "rage": 3949,
      "ĠAUD": 3950,
      "Ġdem": 3951,
      "Ġdeck": 3952,
      "Ġrid": 3953,
      "AME": 3954,
      "Ġsafe": 3955,
      "BOY": 3956,
      "Ġthroat": 3957,
      "XT": 3958,
      "case": 3959,
      "ĠCam": 3960,
      "INN": 3961,
      "ĠKip": 3962,
      "ĠTHAT": 3963,
      "Ġplat": 3964,
      "Ġshall": 3965,
      "ĠCOMM": 3966,
      "Ġshadows": 3967,
      "ĠCORRIDOR": 3968,
      "?\"": 3969,
      "SC": 3970,
      "ĠDia": 3971,
      "ĠThese": 3972,
      "ĠGre": 3973,
      "Ġret": 3974,
      "Ġaside": 3975,
      "Ġstate": 3976,
      "ilt": 3977,
      "Ġ13": 3978,
      "Ġ15": 3979,
      "ABB": 3980,
      "Ġhappens": 3981,
      "Ġconfused": 3982,
      "Ġcommand": 3983,
      "Ġbooks": 3984,
      "Ġdraws": 3985,
      "lud": 3986,
      "inn": 3987,
      "orth": 3988,
      "Ġpath": 3989,
      "ĠMEN": 3990,
      "ĠFettes": 3991,
      "Ġrings": 3992,
      "Ġspots": 3993,
      "Ġ11": 3994,
      "Ġ14": 3995,
      "ENTS": 3996,
      "dy": 3997,
      "work": 3998,
      "Ġpours": 3999,
      "Ġserv": 4000,
      "ĠLUCIANO": 4001,
      "Ġbottom": 4002,
      "ĠHAMMOND": 4003,
      "ĠRomy": 4004,
      "ĠBETSY": 4005,
      "eas": 4006,
      "ĠFuck": 4007,
      "Ġwears": 4008,
      "hange": 4009,
      "ĠVICTOR": 4010,
      "ĠFRIDA": 4011,
      "ject": 4012,
      "rit": 4013,
      "Ġtiny": 4014,
      "Ġbomb": 4015,
      "Ġpun": 4016,
      "ĠJames": 4017,
      "Ġrece": 4018,
      "ĠVER": 4019,
      "ILY": 4020,
      "QUIAT": 4021,
      "ĠBASQUIAT": 4022,
      "DE": 4023,
      "ops": 4024,
      "ĠBETH": 4025,
      "ARS": 4026,
      "aced": 4027,
      "ADER": 4028,
      "ĠHARTMAN": 4029,
      "kman": 4030,
      "ws": 4031,
      "ĠAlice": 4032,
      "ĠBlo": 4033,
      "ĠJUL": 4034,
      "Ġdeli": 4035,
      "Ġspins": 4036,
      "Ġanybody": 4037,
      "Ġmovie": 4038,
      "IES": 4039,
      "ita": 4040,
      "ĠRose": 4041,
      "que": 4042,
      "Ġsave": 4043,
      "Ġsecurity": 4044,
      "ĠCOLL": 4045,
      "ĠGerman": 4046,
      "EF": 4047,
      "ka": 4048,
      "ĠHouse": 4049,
      "ĠCLA": 4050,
      "ĠGENER": 4051,
      "ury": 4052,
      "Ġstopped": 4053,
      "ĠHEALY": 4054,
      "Ġmonths": 4055,
      "ĠMARSHALL": 4056,
      "oon": 4057,
      "Ġaut": 4058,
      "Ġca": 4059,
      "Ġfran": 4060,
      "Ġpin": 4061,
      "Ġthirty": 4062,
      "ols": 4063,
      "Ġord": 4064,
      "Ġlistens": 4065,
      "well": 4066,
      "ĠCle": 4067,
      "ĠLAND": 4068,
      "ĠOver": 4069,
      "Ġpassing": 4070,
      "Ġflies": 4071,
      "Ġexcited": 4072,
      "ĠPrice": 4073,
      "??": 4074,
      "aly": 4075,
      "night": 4076,
      "ĠHold": 4077,
      "ĠMER": 4078,
      "ĠBat": 4079,
      "Ġsell": 4080,
      "Ġvamp": 4081,
      "ĠBehind": 4082,
      "lessly": 4083,
      "Ġwarm": 4084,
      "Ġran": 4085,
      "Ġboun": 4086,
      "Ġmat": 4087,
      "Ġgrip": 4088,
      "Ġnoise": 4089,
      "Ġcraw": 4090,
      "Ġhurries": 4091,
      "ĠSimone": 4092,
      "Ġstruggles": 4093,
      "ĠFaith": 4094,
      ".,": 4095,
      "off": 4096,
      "hard": 4097,
      "looking": 4098,
      "Ġda": 4099,
      "ĠTOM": 4100,
      "ĠJER": 4101,
      "Ġself": 4102,
      "Ġdear": 4103,
      "inks": 4104,
      "Ġallow": 4105,
      "OVER": 4106,
      "bby": 4107,
      "Ġtired": 4108,
      "ĠBra": 4109,
      "ĠBig": 4110,
      "ĠLo": 4111,
      "ĠEVEN": 4112,
      "Ġspread": 4113,
      "host": 4114,
      "Ġglance": 4115,
      "UME": 4116,
      "Ġparents": 4117,
      "ĠRobin": 4118,
      "Ġremains": 4119,
      "Ġmillion": 4120,
      "bed": 4121,
      "Ġrush": 4122,
      "URT": 4123,
      "Ġseconds": 4124,
      "ĠDuke": 4125,
      "ution": 4126,
      "Ġsend": 4127,
      "Ġdied": 4128,
      "ĠKYLE": 4129,
      "hole": 4130,
      "Ġreturn": 4131,
      "Ġbecomes": 4132,
      "ĠELECTRA": 4133,
      "gy": 4134,
      "Ġpara": 4135,
      "ĠCLE": 4136,
      "Ġlose": 4137,
      "Ġweak": 4138,
      "ĠEXTERIOR": 4139,
      "AMP": 4140,
      "Ġshoots": 4141,
      "Ġsurface": 4142,
      "ĠEND": 4143,
      "Ġtouches": 4144,
      "ĠVenkman": 4145,
      "Ġbal": 4146,
      "Ġgather": 4147,
      "ama": 4148,
      "Ġstrid": 4149,
      "Ġcolor": 4150,
      "Ġnewsp": 4151,
      "Ġearly": 4152,
      "air": 4153,
      "reep": 4154,
      "Ġbill": 4155,
      "ĠAc": 4156,
      "roy": 4157,
      "ĠEven": 4158,
      "ads": 4159,
      "Ġwooden": 4160,
      "Ġtelevision": 4161,
      "ĠFLOOR": 4162,
      "Ġduck": 4163,
      "ĠBA": 4164,
      "ĠLand": 4165,
      "ades": 4166,
      "Ġcock": 4167,
      "OOK": 4168,
      "Ġbeginning": 4169,
      "ROL": 4170,
      "Ġbod": 4171,
      "use": 4172,
      "Ġeating": 4173,
      "elt": 4174,
      "ĠJOKER": 4175,
      "ĠDAWN": 4176,
      "attered": 4177,
      "ATHAN": 4178,
      "Ġpair": 4179,
      "Ġconversation": 4180,
      "Ġtu": 4181,
      "tab": 4182,
      "ĠClo": 4183,
      "ĠNATHAN": 4184,
      "urs": 4185,
      "Ġglad": 4186,
      "iolet": 4187,
      "Ġmeeting": 4188,
      "Ġfighting": 4189,
      "Ġsoldiers": 4190,
      "yn": 4191,
      "ĠX": 4192,
      "inda": 4193,
      "Ġbank": 4194,
      "ĠTITLE": 4195,
      "Ġprac": 4196,
      "Ġpapers": 4197,
      "ĠMAS": 4198,
      "ĠMONT": 4199,
      "ĠPAN": 4200,
      "ĠSTAN": 4201,
      "Ġpulled": 4202,
      "Ġchick": 4203,
      "Ġamaz": 4204,
      "OOD": 4205,
      "'.": 4206,
      "fort": 4207,
      "mi": 4208,
      "Ġtear": 4209,
      "ĠSw": 4210,
      "ĠNick": 4211,
      "Ġupon": 4212,
      "INGS": 4213,
      "Ġsmell": 4214,
      "ĠSTATION": 4215,
      "ĠFLASH": 4216,
      "Ġuns": 4217,
      "Ġforce": 4218,
      "gged": 4219,
      "Ġcourt": 4220,
      "ĠHOLLY": 4221,
      "ĠSIMON": 4222,
      "Ġbunk": 4223,
      "Ġmot": 4224,
      "Ġcrying": 4225,
      "tally": 4226,
      "ĠCeas": 4227,
      "idence": 4228,
      "ĠOP": 4229,
      "Ġhandle": 4230,
      "Ġplate": 4231,
      "Ġdrunk": 4232,
      "ĠLeon": 4233,
      "Ġemerges": 4234,
      "ĠJimmy": 4235,
      "Ġdirectly": 4236,
      "ĠMichele": 4237,
      "ĠCeasar": 4238,
      "Ġpants": 4239,
      "Ġlower": 4240,
      "ĠGray": 4241,
      "Ġwithin": 4242,
      "ustom": 4243,
      "ĠDoes": 4244,
      "Ġexchange": 4245,
      "Ġspecial": 4246,
      "Ġuniform": 4247,
      "ĠSer": 4248,
      "arry": 4249,
      "ĠAu": 4250,
      "ONES": 4251,
      "acher": 4252,
      "ĠROSE": 4253,
      "Ġ16": 4254,
      "Ġsoftly": 4255,
      "RIC": 4256,
      "Ġgrim": 4257,
      "ĠNobody": 4258,
      "ĠMAC": 4259,
      "Ġsurprise": 4260,
      "ĠDANA": 4261,
      "ĠStop": 4262,
      "Ġbol": 4263,
      "ĠMore": 4264,
      "Ġthick": 4265,
      "Ġstro": 4266,
      "Ġbackground": 4267,
      "ured": 4268,
      "Ġexplain": 4269,
      "Ġskin": 4270,
      "ublic": 4271,
      "Ġwhispers": 4272,
      "Ġfunny": 4273,
      "ĠMunny": 4274,
      "ĠWIND": 4275,
      "irth": 4276,
      "ĠFe": 4277,
      "ĠKN": 4278,
      "Ġshake": 4279,
      "Ġappre": 4280,
      "Ġscream": 4281,
      "tively": 4282,
      "Ġmessage": 4283,
      "ĠGENERAL": 4284,
      "?...": 4285,
      "ai": 4286,
      "Ġsister": 4287,
      "Ġwit": 4288,
      "ĠLONG": 4289,
      "urt": 4290,
      "ĠViolet": 4291,
      "Ġcops": 4292,
      "Ġflat": 4293,
      "Ġpointing": 4294,
      "ĠPRICE": 4295,
      "Ġgaze": 4296,
      "ĠMUNNY": 4297,
      "Ġtab": 4298,
      "Ġpilo": 4299,
      "arrow": 4300,
      "Ġgiant": 4301,
      "Ġrela": 4302,
      "ĠJACKIE": 4303,
      "Ġraces": 4304,
      "Ġcabin": 4305,
      "LIN": 4306,
      "tt": 4307,
      "Ġproud": 4308,
      "Ġclut": 4309,
      "Ġimage": 4310,
      "Ġfinal": 4311,
      "ĠDONNIE": 4312,
      "IANA": 4313,
      "Ġblows": 4314,
      "Ġpresent": 4315,
      "ĠDra": 4316,
      "ĠDET": 4317,
      "ety": 4318,
      "Ġled": 4319,
      "Ġthird": 4320,
      "ading": 4321,
      "ĠGive": 4322,
      "ENCH": 4323,
      "ilda": 4324,
      "Ġneigh": 4325,
      "OUP": 4326,
      "Ġsitu": 4327,
      "Ġteam": 4328,
      "Ġburning": 4329,
      "Ġclearly": 4330,
      "Ġkicks": 4331,
      "ĠSenator": 4332,
      "ĠSYKES": 4333,
      "ĠDIANA": 4334,
      "ĠGib": 4335,
      "Ġstarting": 4336,
      "ĠDoctor": 4337,
      "ĠColo": 4338,
      "Ġpresses": 4339,
      "ĠBrit": 4340,
      "ĠREPORTER": 4341,
      "Farl": 4342,
      "son": 4343,
      "Ġfell": 4344,
      "Ġpil": 4345,
      "ĠSAL": 4346,
      "ĠDes": 4347,
      "sell": 4348,
      "Ġsea": 4349,
      "ecting": 4350,
      "Ġgrab": 4351,
      "uddy": 4352,
      "Ġblock": 4353,
      "ĠSTEED": 4354,
      "ibly": 4355,
      "ĠJUDGE": 4356,
      "Ġrefle": 4357,
      "ĠMacFarl": 4358,
      "ĠEVENING": 4359,
      "ĠMacFarlane": 4360,
      "RIST": 4361,
      "Ġpage": 4362,
      "ĠAB": 4363,
      "ĠDIRE": 4364,
      "Ġloc": 4365,
      "Ġloose": 4366,
      "Ġrev": 4367,
      "Ġstair": 4368,
      "Ġlives": 4369,
      "Ġmotion": 4370,
      "Ġvic": 4371,
      "ĠShit": 4372,
      "Ġpainting": 4373,
      "Ġknocks": 4374,
      "Ġdesert": 4375,
      "Ġmoun": 4376,
      "Ġur": 4377,
      "ĠRath": 4378,
      "ANO": 4379,
      "ended": 4380,
      "Ġcarries": 4381,
      "Ġleading": 4382,
      "Ġsleeping": 4383,
      "Ġfair": 4384,
      "Ġapproaching": 4385,
      "Ġrealizes": 4386,
      "Ġetc": 4387,
      "ĠTHROUGH": 4388,
      "ki": 4389,
      "lim": 4390,
      "tit": 4391,
      "Ġtick": 4392,
      "Ġslo": 4393,
      "ĠMath": 4394,
      "ĠFRED": 4395,
      "oks": 4396,
      "Ġseven": 4397,
      "OUT": 4398,
      "ITAL": 4399,
      "ĠThrough": 4400,
      "Ġemo": 4401,
      "Ġkeys": 4402,
      "Ġfocus": 4403,
      "ULLY": 4404,
      "reepio": 4405,
      "Ġpit": 4406,
      "ĠMus": 4407,
      "Ġstone": 4408,
      "Ġrides": 4409,
      "apan": 4410,
      "Ġquestions": 4411,
      "Ġnervously": 4412,
      "Ġbodies": 4413,
      "Ġmer": 4414,
      "Ġhide": 4415,
      "ushed": 4416,
      "Ġexha": 4417,
      "Ġplastic": 4418,
      "Ġteeth": 4419,
      "ĠShut": 4420,
      "Ġtrust": 4421,
      "SA": 4422,
      "cas": 4423,
      "ex": 4424,
      "Ġtried": 4425,
      "ham": 4426,
      "Ġbike": 4427,
      "Ġhoney": 4428,
      "ĠSay": 4429,
      "ĠCARL": 4430,
      "iff": 4431,
      "ĠSTORE": 4432,
      "Ġstudies": 4433,
      "ĠRuss": 4434,
      "just": 4435,
      "lin": 4436,
      "rien": 4437,
      "Ġjer": 4438,
      "gel": 4439,
      "Ġenjo": 4440,
      "Ġusing": 4441,
      "ĠHoward": 4442,
      "ĠLEIA": 4443,
      "ĠBlume": 4444,
      "ĠCarl": 4445,
      "Ġbitch": 4446,
      "Ġcrew": 4447,
      "ĠWalter": 4448,
      "house": 4449,
      "what": 4450,
      "ĠSQU": 4451,
      "ĠJapan": 4452,
      "ĠGord": 4453,
      "Ġsomewhere": 4454,
      "Ġenorm": 4455,
      "ĠThreepio": 4456,
      "inson": 4457,
      "ĠONE": 4458,
      "Ġfalling": 4459,
      "ĠEverything": 4460,
      "Ġ199": 4461,
      "ĠTravis": 4462,
      "ĠHammond": 4463,
      "Ġtrip": 4464,
      "ism": 4465,
      "Ġgar": 4466,
      "ĠCal": 4467,
      "Ġlun": 4468,
      "Ġrow": 4469,
      "Ġwhatever": 4470,
      "ITS": 4471,
      "Ġpoor": 4472,
      "Ġenvelo": 4473,
      "ĠMAIN": 4474,
      "Ġfinished": 4475,
      "ĠMathilda": 4476,
      "Ġmask": 4477,
      "Ġfav": 4478,
      "riously": 4479,
      "Ġhung": 4480,
      "ĠCENT": 4481,
      "ĠLYN": 4482,
      "ĠET": 4483,
      "Ġanx": 4484,
      "Ġstorm": 4485,
      "Ġbackward": 4486,
      "aine": 4487,
      "Ġprodu": 4488,
      "Ġhorses": 4489,
      "Ġterror": 4490,
      "Ġmonitor": 4491,
      "ĠRussell": 4492,
      "Ġtype": 4493,
      "reet": 4494,
      "lla": 4495,
      "Ġhy": 4496,
      "Ġpip": 4497,
      "Ġinform": 4498,
      "ĠHAND": 4499,
      "eless": 4500,
      "Ġspin": 4501,
      "Ġworth": 4502,
      "ope": 4503,
      "ADD": 4504,
      "ĠCONTROL": 4505,
      "Ġcheer": 4506,
      "ĠTRENT": 4507,
      "ĠSmith": 4508,
      "Ġdouble": 4509,
      "SIE": 4510,
      "aa": 4511,
      "esh": 4512,
      "Ġwine": 4513,
      "Ġfan": 4514,
      "Ġfish": 4515,
      "Ġhill": 4516,
      "Ġeh": 4517,
      "ORT": 4518,
      "ĠVIEW": 4519,
      "Ġwagon": 4520,
      "Ġunc": 4521,
      "USK": 4522,
      "ABLE": 4523,
      "ĠScully": 4524,
      "Ġevening": 4525,
      "Ġlowers": 4526,
      "ĠExcuse": 4527,
      "oring": 4528,
      "ĠVery": 4529,
      "Ġpost": 4530,
      "Ġaction": 4531,
      "Ġfool": 4532,
      "Ġcuts": 4533,
      "Ġlands": 4534,
      "ĠSECRET": 4535,
      "Ġwed": 4536,
      "ĠSpen": 4537,
      "Ġhero": 4538,
      "ided": 4539,
      "Ġwear": 4540,
      "ĠSTAR": 4541,
      "ĠJOSIE": 4542,
      "Ġreacts": 4543,
      "ĠTRUCK": 4544,
      "ulous": 4545,
      "ĠGrand": 4546,
      "ĠWAIT": 4547,
      "AU": 4548,
      "Brien": 4549,
      "onse": 4550,
      "Ġcri": 4551,
      "ĠMag": 4552,
      "oles": 4553,
      "Ġprop": 4554,
      "Ġfinishes": 4555,
      "Ġinterrup": 4556,
      "ĠCharles": 4557,
      "Ġdoub": 4558,
      "hy": 4559,
      "tard": 4560,
      "Ġart": 4561,
      "hered": 4562,
      "Ġtraffic": 4563,
      "ĠCLOSEUP": 4564,
      "Ġfinish": 4565,
      "Ġlaughter": 4566,
      "Ġbusy": 4567,
      "Ġdrinking": 4568,
      "Ġpossible": 4569,
      "ĠSCREEN": 4570,
      "EEN": 4571,
      "ga": 4572,
      "jah": 4573,
      "kin": 4574,
      "ora": 4575,
      "ĠSa": 4576,
      "ĠBAT": 4577,
      "ĠKid": 4578,
      "ISON": 4579,
      "Ġactiv": 4580,
      "ively": 4581,
      "Ġshowing": 4582,
      "fortable": 4583,
      "ĠJUDD": 4584,
      "ĠDiane": 4585,
      "ĠBritish": 4586,
      "LES": 4587,
      "YSSA": 4588,
      "ĠSus": 4589,
      "eding": 4590,
      "Ġcost": 4591,
      "Ġhasn": 4592,
      "ational": 4593,
      "Ġpeace": 4594,
      "Ġshoes": 4595,
      "ĠLooks": 4596,
      "ĠBUZZ": 4597,
      "Ġsimple": 4598,
      "Ġgrins": 4599,
      "Ġyelling": 4600,
      "pse": 4601,
      "Ġtill": 4602,
      "ĠJun": 4603,
      "HNE": 4604,
      "Ġapart": 4605,
      "ĠCORKY": 4606,
      "Ġgestures": 4607,
      ".--": 4608,
      "WER": 4609,
      "set": 4610,
      "take": 4611,
      "Ġheld": 4612,
      "ĠRAD": 4613,
      "Ġhorri": 4614,
      "ĠAlright": 4615,
      "ĠSPEN": 4616,
      "ĠCOMP": 4617,
      "He": 4618,
      "Ġwet": 4619,
      "Ġtower": 4620,
      "Ġpot": 4621,
      "eds": 4622,
      "ĠBUT": 4623,
      "ĠPO": 4624,
      "vered": 4625,
      "Ġmotions": 4626,
      "ific": 4627,
      "AMS": 4628,
      "ĠLEON": 4629,
      "ĠDIRECTOR": 4630,
      "MIN": 4631,
      "how": 4632,
      "Ġdirt": 4633,
      "Ġmic": 4634,
      "ĠSER": 4635,
      "atu": 4636,
      "Ġlap": 4637,
      "ĠGl": 4638,
      "ĠGreat": 4639,
      "Ġwhist": 4640,
      "Ġleather": 4641,
      "Ġheading": 4642,
      "Ġcarry": 4643,
      "Ġthanks": 4644,
      "Ġneeds": 4645,
      "Ġwrite": 4646,
      "apping": 4647,
      "Ġreport": 4648,
      "ĠBoy": 4649,
      "Ġrace": 4650,
      "ulon": 4651,
      "SPITAL": 4652,
      "Ġforgot": 4653,
      "rent": 4654,
      "itting": 4655,
      "ĠCAN": 4656,
      "ĠEve": 4657,
      "lier": 4658,
      "Ġrise": 4659,
      "aund": 4660,
      "Ġeverywhere": 4661,
      "Ġsteel": 4662,
      "tures": 4663,
      "Ġflips": 4664,
      "Ġresponse": 4665,
      "Ġiron": 4666,
      "Ġdim": 4667,
      "Ġpush": 4668,
      "Ġitself": 4669,
      "Ġwave": 4670,
      "Ġhorror": 4671,
      "Ġfurther": 4672,
      "bber": 4673,
      "Ġpile": 4674,
      "ĠSK": 4675,
      ".....": 4676,
      "ĠPen": 4677,
      "Ġstom": 4678,
      "ste": 4679,
      "Ġbooth": 4680,
      "ĠBefore": 4681,
      "Ġgiven": 4682,
      "Ġstartled": 4683,
      "Ġbullet": 4684,
      "ECCA": 4685,
      "ĠRobinson": 4686,
      "Ġchanged": 4687,
      "ĠJuli": 4688,
      "ĠREBECCA": 4689,
      "Ġsituation": 4690,
      "ĠBack": 4691,
      "allow": 4692,
      "INK": 4693,
      "umm": 4694,
      "act": 4695,
      "SELL": 4696,
      "lights": 4697,
      "Ġsilently": 4698,
      "Ġinclud": 4699,
      "ĠElijah": 4700,
      "--------": 4701,
      "ĠETHNE": 4702,
      "45": 4703,
      "five": 4704,
      "esting": 4705,
      "Ġcast": 4706,
      "Ġcustom": 4707,
      "ĠHIM": 4708,
      "ĠCOUR": 4709,
      "Ġjud": 4710,
      "ĠHOSPITAL": 4711,
      "Ġrespond": 4712,
      "ĠDana": 4713,
      "Ġchanges": 4714,
      "Ġfrozen": 4715,
      "ĠRUSSELL": 4716,
      "BRI": 4717,
      "UE": 4718,
      "tra": 4719,
      "val": 4720,
      "Ġfile": 4721,
      "ĠDaddy": 4722,
      "Ġones": 4723,
      "Ġbelt": 4724,
      "ĠCOP": 4725,
      "ĠStan": 4726,
      "Ġdrawn": 4727,
      "OUNT": 4728,
      "Ġdisappear": 4729,
      "Ġdancing": 4730,
      ").": 4731,
      "HOUSE": 4732,
      "cut": 4733,
      "hin": 4734,
      "wers": 4735,
      "ĠJudd": 4736,
      "ĠFE": 4737,
      "okes": 4738,
      "iliar": 4739,
      "acing": 4740,
      "Ġcouch": 4741,
      "Ġfacing": 4742,
      "Ġapo": 4743,
      "orky": 4744,
      "Ġmurder": 4745,
      "ĠSilence": 4746,
      "Ġembarrassed": 4747,
      "FARL": 4748,
      "Ġtank": 4749,
      "ision": 4750,
      "ities": 4751,
      "Ġfu": 4752,
      "Ġfle": 4753,
      "Ġpray": 4754,
      "ĠSON": 4755,
      "ĠBones": 4756,
      "ĠOffic": 4757,
      "Ġnobody": 4758,
      "Ġdisplay": 4759,
      "Ġsuppose": 4760,
      "ĠMACFARL": 4761,
      "ĠMACFARLANE": 4762,
      "YER": 4763,
      "ker": 4764,
      "ners": 4765,
      "Ġdate": 4766,
      "Ġcards": 4767,
      "Ġpal": 4768,
      "ĠLIGHT": 4769,
      "ĠPause": 4770,
      "ĠNUR": 4771,
      "eling": 4772,
      "eech": 4773,
      "GUE": 4774,
      "but": 4775,
      "gar": 4776,
      "ĠCITY": 4777,
      "INO": 4778,
      "ĠINDY": 4779,
      "elve": 4780,
      "Ġrocks": 4781,
      "Ġtells": 4782,
      "ĠMari": 4783,
      "ĠANGEL": 4784,
      "ĠSCHOOL": 4785,
      "Ġshouts": 4786,
      "para": 4787,
      "Ġene": 4788,
      "Ġtap": 4789,
      "Ġpour": 4790,
      "ĠSIL": 4791,
      "ĠGUN": 4792,
      "Ġchain": 4793,
      "Ġcheek": 4794,
      "Ġhappening": 4795,
      "Ġpassen": 4796,
      "ĠGRAY": 4797,
      "Ġcommun": 4798,
      "ĠCROSS": 4799,
      "ĠSARAH": 4800,
      "Ġtunnel": 4801,
      "Ġsol": 4802,
      "Ġoil": 4803,
      "ĠCorky": 4804,
      "ĠWalk": 4805,
      "Ġlines": 4806,
      "ĠEls": 4807,
      "Ġforth": 4808,
      "ppy": 4809,
      "Ġvol": 4810,
      "Ġstir": 4811,
      "ĠWhich": 4812,
      "ĠCLOS": 4813,
      "Ġcras": 4814,
      "ĠBarry": 4815,
      "Ġtables": 4816,
      "Ġmoved": 4817,
      "ideo": 4818,
      "Ġcart": 4819,
      "Ġcompany": 4820,
      "ĠNever": 4821,
      "Ġfilm": 4822,
      "Ġgoddamn": 4823,
      "Ġenormous": 4824,
      "jor": 4825,
      "Ġtax": 4826,
      "Ġbars": 4827,
      "itches": 4828,
      "ĠTony": 4829,
      "ARRY": 4830,
      "Ġconn": 4831,
      "ITZ": 4832,
      "Ġcovers": 4833,
      "Ġpops": 4834,
      "tical": 4835,
      "Ġfirm": 4836,
      "Ġtalks": 4837,
      "iano": 4838,
      "ĠHEAR": 4839,
      "ship": 4840,
      "ference": 4841,
      "ĠPRES": 4842,
      "Ġanswers": 4843,
      "ĠSUB": 4844,
      "ĠDETECT": 4845,
      "cra": 4846,
      "ern": 4847,
      "ert": 4848,
      "Ġsudden": 4849,
      "onda": 4850,
      "Ġdad": 4851,
      "ĠHur": 4852,
      "ĠAdam": 4853,
      "ourt": 4854,
      "ITOR": 4855,
      "Ġsticks": 4856,
      "hood": 4857,
      "Ġsquee": 4858,
      "ĠIndian": 4859,
      "Ġmiles": 4860,
      "ĠElect": 4861,
      "Ġfrightened": 4862,
      "ead": 4863,
      "sed": 4864,
      "Ġfain": 4865,
      "oman": 4866,
      "ĠAulon": 4867,
      "ANK": 4868,
      "OMER": 4869,
      "Ġpop": 4870,
      "emb": 4871,
      "Ġquar": 4872,
      "ACKS": 4873,
      "ULON": 4874,
      "Ġthrowing": 4875,
      "noon": 4876,
      "ĠDUKE": 4877,
      "ĠAmerica": 4878,
      "ĠDANNY": 4879,
      "Ġplatform": 4880,
      "ĠLando": 4881,
      "BRIEN": 4882,
      "AV": 4883,
      "gress": 4884,
      "hic": 4885,
      "oned": 4886,
      "Ġfelt": 4887,
      "Ġyard": 4888,
      "ĠCOW": 4889,
      "ĠBIG": 4890,
      "ĠGAR": 4891,
      "Ġasking": 4892,
      "Ġweight": 4893,
      "STE": 4894,
      "Ġarmy": 4895,
      "shit": 4896,
      "Ġrealize": 4897,
      "ĠEverybody": 4898,
      "ĠDeath": 4899,
      "Ġforehead": 4900,
      "Ġfurn": 4901,
      "Ġmassive": 4902,
      "CONT": 4903,
      "LIGHT": 4904,
      "SKY": 4905,
      "Ġsides": 4906,
      "rated": 4907,
      "Ġbench": 4908,
      "Ġcash": 4909,
      "ĠCould": 4910,
      "ĠWar": 4911,
      "Ġthin": 4912,
      "Ġconta": 4913,
      "Ġadm": 4914,
      "Ġbloody": 4915,
      "Ġfold": 4916,
      "ĠCHARLES": 4917,
      "ĠEllen": 4918,
      "ĠBoss": 4919,
      "WAN": 4920,
      "aves": 4921,
      "cil": 4922,
      "Ġfut": 4923,
      "Ġodd": 4924,
      "tat": 4925,
      "ĠHOLD": 4926,
      "ĠWES": 4927,
      "asts": 4928,
      "ĠLATE": 4929,
      "ĠPar": 4930,
      "Ġforty": 4931,
      "Ġweeks": 4932,
      "Ġhood": 4933,
      "ission": 4934,
      "ĠREEF": 4935,
      "Ġstreets": 4936,
      "ĠSch": 4937,
      "ĠSEE": 4938,
      "umbling": 4939,
      "Ġbreathing": 4940,
      "ĠJEFFREY": 4941,
      "GLINE": 4942,
      "ĠDRAGLINE": 4943,
      "Ġsighs": 4944,
      "MER": 4945,
      "NEY": 4946,
      "bur": 4947,
      "ule": 4948,
      "wing": 4949,
      "Ġwire": 4950,
      "ĠAULON": 4951,
      "ĠJUN": 4952,
      "Ġune": 4953,
      "ĠPAL": 4954,
      "ĠNOR": 4955,
      "ĠHeck": 4956,
      "ENA": 4957,
      "ĠShep": 4958,
      "igns": 4959,
      "Ġswim": 4960,
      "ĠReb": 4961,
      "Ġsilver": 4962,
      "ĠJIMMY": 4963,
      "ĠGuard": 4964,
      "Ġporch": 4965,
      "Ġsurrounded": 4966,
      "bar": 4967,
      "ipping": 4968,
      "jam": 4969,
      "kward": 4970,
      "ĠSIR": 4971,
      "ĠAC": 4972,
      "ĠMOM": 4973,
      "Ġbelong": 4974,
      "ĠRand": 4975,
      "ĠRem": 4976,
      "ĠREST": 4977,
      "Ġatte": 4978,
      "geant": 4979,
      "Ġleaning": 4980,
      "Ġnotes": 4981,
      "ĠJoey": 4982,
      "ĠWHAT": 4983,
      "Ġmissing": 4984,
      "Ġsweat": 4985,
      "Ġthrown": 4986,
      "Ġvarious": 4987,
      "Ġweapon": 4988,
      "fessor": 4989,
      "aul": 4990,
      "Ġver": 4991,
      "Ġtie": 4992,
      "Ġbirth": 4993,
      "riff": 4994,
      "Ġgener": 4995,
      "Ġlamp": 4996,
      "ĠFour": 4997,
      "Ġshots": 4998,
      "Ġsuitc": 4999
    },
    "merges": [
      "Ġ t",
      "h e",
      "Ġ a",
      "i n",
      "e r",
      "h a",
      "l o",
      "Ġt he",
      "Ġ s",
      "o n",
      "e s",
      "e n",
      "r a",
      "o u",
      "i a",
      "g u",
      "Ġ d",
      "t er",
      "gu e",
      "D ia",
      "lo gue",
      "Dia logue",
      "Ġ w",
      "r e",
      "in g",
      "ra c",
      "i s",
      "Ġ b",
      "C ha",
      "n d",
      "rac ter",
      "Cha racter",
      "Ġ m",
      "Ġ c",
      "i t",
      "Ġ f",
      "Ġ o",
      "r i",
      "t i",
      "Ġ I",
      "Ġt o",
      "Ġ T",
      "t a",
      "en e",
      "l l",
      "S c",
      "Sc ene",
      "Ġ h",
      "o r",
      "Ġ p",
      "ti on",
      "Ġ S",
      ". .",
      "Ġa nd",
      "a r",
      "Ġd es",
      "Ġo f",
      "ri p",
      "Ġ g",
      "Ġ in",
      "Ġ y",
      "Ġdes c",
      "Ġ he",
      "rip tion",
      "Ġdesc ription",
      "Ġ H",
      "e d",
      "a n",
      "o m",
      "Ġ A",
      "l e",
      "Ġy ou",
      "Ġ M",
      "Ġ C",
      "Ġ B",
      "o w",
      "Ġ -",
      "' s",
      "Ġ D",
      "Ġ n",
      "Ġ W",
      "c k",
      "Ġm e",
      "e t",
      "a t",
      "ha t",
      "Ġ l",
      "ĠT he",
      "Ġ on",
      "Ġ is",
      "o t",
      "v e",
      "a s",
      "Ġ ha",
      "g h",
      "u s",
      "Ġt h",
      "i m",
      "Ġb e",
      ".. .",
      "l y",
      "Ġ it",
      "E R",
      "Ġ e",
      "a y",
      "Ġh is",
      "Ġ L",
      "Ġ J",
      "ou t",
      "i d",
      "r o",
      "Ġ E",
      "Ġ u",
      "a l",
      "Ġ R",
      "c e",
      "Ġ lo",
      "Ġ P",
      "d a",
      "v er",
      "A N",
      "a d",
      "Ġ N",
      "i r",
      "l d",
      "k e",
      "ĠH e",
      "Ġ O",
      "u t",
      "Ġme ta",
      "da ta",
      "Ġmeta data",
      "Ġ G",
      "' t",
      "it h",
      "Ġd o",
      "gh t",
      "Ġa t",
      "Ġ F",
      "Ġ re",
      "c h",
      "A R",
      "Ġ Y",
      "I N",
      "u r",
      "O N",
      "Ġw ith",
      "s e",
      "Ġf or",
      "o k",
      "Ġhe r",
      "t o",
      "Ġa s",
      "en t",
      "Ġ k",
      "Ġt hat",
      "Ġs e",
      "Ġu p",
      "Ġh im",
      "Ġ out",
      "o d",
      "Ġa n",
      "a ck",
      "Ġs ta",
      "Ġl i",
      "he r",
      "a ll",
      "a m",
      "Ġ- -",
      "Ġw e",
      "Ġf r",
      "E N",
      "r ou",
      "Ġg o",
      "Ġs t",
      "Ġlo ok",
      "n s",
      "ĠY ou",
      "Ġs h",
      "om e",
      "Ġa re",
      "ĠI N",
      "l i",
      "O R",
      "Ġw h",
      "Ġ V",
      "i l",
      "Ġ j",
      "g e",
      "L L",
      "ar d",
      "s t",
      "i ll",
      "p p",
      "Ġfr om",
      "i c",
      "es s",
      "p s",
      "a k",
      "us t",
      "in d",
      "Ġ le",
      "t s",
      "A T",
      "Ġ r",
      "e l",
      "Ġk n",
      "u n",
      "ĠIN T",
      "Ġth is",
      "Ġm o",
      "r y",
      "Ġn e",
      "Ġb ack",
      "er s",
      "Ġ K",
      "ow n",
      "Ġin to",
      "ĠW e",
      "Ġn ot",
      "i on",
      "I C",
      "Ġc an",
      "ĠS he",
      "E S",
      "O U",
      "o l",
      "i e",
      "A Y",
      "ĠI t",
      "on e",
      "Ġha ve",
      "u d",
      "a in",
      "h ing",
      "Ġg et",
      "ĠT H",
      "i f",
      "u m",
      "Ġyou r",
      "he s",
      "ou ld",
      "' re",
      "Ġd own",
      "n g",
      "L E",
      "Ġw as",
      "id e",
      "Ġ ro",
      "' m",
      "a b",
      "Ġa b",
      "Ġof f",
      "Ġd e",
      "a c",
      "w ay",
      "Ġa ll",
      "Ġkn ow",
      "i ght",
      "Ġc on",
      "Ġs he",
      "I S",
      "Ġm y",
      "Ġs p",
      "I G",
      "Ġb ut",
      "O M",
      "E L",
      "v es",
      "Ġse e",
      "al k",
      "in k",
      "Ġo ver",
      "Ġc om",
      "A L",
      "lo w",
      "ĠE X",
      "Ġthe m",
      "Ġon e",
      "t ing",
      "Ġlook s",
      "Ġli ke",
      "Ġthe y",
      "Ġw hat",
      "rou nd",
      "a ke",
      "i g",
      "Ġd on",
      "q u",
      "en d",
      "Ġsta r",
      "ou r",
      "IN G",
      "Ġha nd",
      "ĠEX T",
      "E T",
      "I T",
      "Ġdo or",
      "an t",
      "ĠA nd",
      "Ġ v",
      "Ġ ri",
      "ĠW hat",
      "u ll",
      "Ġe x",
      "a ce",
      "Ġp l",
      "Ġc o",
      "Ġb y",
      "Ġ ...",
      "Ġs o",
      "a nd",
      "t e",
      "I E",
      "Ġj ust",
      "C K",
      "ĠThe y",
      "IG H",
      "Ġw or",
      "O T",
      "Ġs m",
      "ĠTH E",
      "Ġ gu",
      "ou s",
      "Ġw he",
      "s s",
      "Ġn o",
      "i ck",
      "f f",
      "ver y",
      "u l",
      "R E",
      "Ġt ur",
      "A M",
      "ar s",
      "IGH T",
      "Ġ \"",
      "Ġab out",
      "e c",
      "' ll",
      "e ll",
      "Ġ (",
      "a p",
      "Ġthe re",
      "Ġa g",
      "Ġthe n",
      "Ġp o",
      "Ġs c",
      "Ġh o",
      "Ġm an",
      "in e",
      "ĠS T",
      "as t",
      "Ġha s",
      "is t",
      "w ard",
      "ĠR O",
      "ĠD AY",
      "Ġs u",
      "Ġf e",
      "ĠA N",
      "t her",
      "Ġs ome",
      "Ġb o",
      "l f",
      "Ġwh o",
      "all y",
      "U T",
      "it ion",
      "ĠT O",
      "E D",
      "es t",
      "Ġhe re",
      "- -",
      "n e",
      "rou gh",
      "O L",
      "t y",
      "e p",
      "A S",
      "I D",
      "p en",
      "as s",
      "a u",
      "Ġhe ad",
      "Ġ en",
      "ra ns",
      "Ġt w",
      "ha n",
      "Ġw a",
      "Ġn ow",
      "t le",
      "Ġg ot",
      "Ġa r",
      "ĠN o",
      "r u",
      "ot her",
      "C H",
      "Ġa round",
      "Ġ us",
      "ra n",
      "S E",
      "Ġc ar",
      "Ġth rough",
      "ak es",
      "o re",
      "Ġthe ir",
      "o p",
      "Ġw ant",
      "at e",
      "Ġag ain",
      "Ġa c",
      "on d",
      "ĠS H",
      "Ġri ght",
      "Ġth ink",
      "Ġo ther",
      "ĠT h",
      "Ġa l",
      "ĠN IGHT",
      "on t",
      "Ġc lo",
      "r ow",
      "Ġsta nd",
      "Ġo pen",
      "Ġs to",
      "Ġw alk",
      "a g",
      "Ġan y",
      "Ġe y",
      "a re",
      "v ing",
      "i re",
      "i ce",
      "it s",
      "v en",
      "l es",
      "rans ition",
      "T ransition",
      "' ve",
      "A D",
      "Ġ ra",
      "Ġu n",
      "i ve",
      "e m",
      "Ġa way",
      "Ġtur ns",
      "a ch",
      "Ġd is",
      "ĠB ut",
      "Ġt im",
      "Ġb l",
      "Ġ if",
      "Ġro om",
      "r ess",
      "I LL",
      "Ġ qu",
      "Ġgo ing",
      "Ġs ay",
      "Ġd id",
      "ar t",
      "Ġo r",
      "b le",
      "Ġs w",
      "ĠT hat",
      "u re",
      "Ġ 1",
      "am e",
      "Ġs ha",
      "Ġs ti",
      "L O",
      "h o",
      "n t",
      "u ck",
      "' d",
      "U R",
      "Ġs a",
      "Ġw ill",
      "n ing",
      "Ġ U",
      "re e",
      "Ġc ha",
      "Ġf ace",
      "ĠC H",
      "Ġto ward",
      "Ġtim e",
      "it tle",
      "b er",
      "se lf",
      "re at",
      "Ġtw o",
      "od y",
      "F F",
      "k s",
      "a us",
      "A CK",
      "ON T",
      "a tion",
      "ti c",
      "in s",
      "V E",
      "R O",
      "ou nd",
      "i le",
      "h ind",
      "ing s",
      "ro ss",
      "er e",
      "it e",
      "Ġbe en",
      "Ġey es",
      "c hes",
      "Ġw ay",
      "U S",
      "Ġg l",
      "y s",
      "K E",
      "Ġa pp",
      "is s",
      "Ġp ull",
      "ĠJ O",
      "b s",
      "ĠM r",
      "ĠA s",
      "Ġp e",
      "Ġdo es",
      "I L",
      "t ed",
      "I R",
      "Ġp ro",
      "IC E",
      "i p",
      "t h",
      "a h",
      "Ġw at",
      "om et",
      "Ġg ra",
      "p er",
      "Ġl ittle",
      "ter s",
      "ar k",
      "m ent",
      "EN T",
      "ab le",
      "Ġt akes",
      "U N",
      "ĠJ o",
      "en ce",
      "a ve",
      "omet hing",
      "ĠThe re",
      "Ġmo re",
      "Ġcon t",
      "ud d",
      "I M",
      "ĠC UT",
      "i ld",
      "m s",
      "Ġu nd",
      "ĠO N",
      "it y",
      "n a",
      "n y",
      "ĠO h",
      "G E",
      "Ġw ind",
      "AN D",
      "Ġgo od",
      "aus e",
      "T ER",
      "as e",
      "Ġsti ll",
      "Ġwhe n",
      "Ġbe hind",
      "c t",
      "f t",
      "U D",
      "Ġho ld",
      "R Y",
      "ĠM A",
      "o b",
      "e ars",
      "Ġw ould",
      "Ġp ut",
      "li e",
      "Ġc h",
      "Ġc l",
      "ĠC ONT",
      "Ġc ome",
      "Ġli ght",
      "e e",
      "ĠWe ll",
      "o s",
      "Ġs omething",
      "ĠTh is",
      "Ġt ell",
      "b e",
      "Ġe very",
      "at h",
      "Ġlo ng",
      "Ġt ake",
      "Ġc all",
      "Ġm om",
      "Ġf ir",
      "ĠD on",
      "AN T",
      "Ġwhe re",
      "Ġe m",
      "s ide",
      "he re",
      "is h",
      "ĠI n",
      "AR D",
      "f ore",
      "e ar",
      "Ġa m",
      "on g",
      "Ġstar ts",
      "ĠF R",
      "Ġp h",
      "Ġ im",
      "Ġs l",
      "Ġc ou",
      "Ġst e",
      "Ġsh ould",
      "Ġt alk",
      "ĠD o",
      "AR L",
      "Ġhand s",
      "Ġwor k",
      "Ġc ould",
      "he d",
      "Ġc he",
      "l ing",
      "Ġto o",
      "ĠH ow",
      "f ter",
      "or t",
      "R A",
      "o od",
      "t hing",
      "Ġha d",
      "i ch",
      "O W",
      "m an",
      "g g",
      "i es",
      "ĠThe n",
      "ĠW h",
      "o se",
      "C E",
      "Ġlook ing",
      "f e",
      "et s",
      "w n",
      "Ġb et",
      "Ġ our",
      "en s",
      "i z",
      "Ġm ake",
      "Ġf lo",
      "ĠS o",
      "at her",
      "Ġfr ont",
      "Ġ '",
      "Ġf l",
      "M AN",
      "S T",
      "Ġ [",
      "Ġs ide",
      "A LL",
      "Ġcom es",
      "Ġb u",
      "op le",
      "Ġon ly",
      "Ġw ere",
      "ry ing",
      "re d",
      "ad e",
      "Ġmom ent",
      "Ġwalk s",
      "e ah",
      "Ġa lo",
      "Ġbe fore",
      "ou se",
      "Ġt ra",
      "is e",
      "l s",
      "ĠAN D",
      "c es",
      "Ġ very",
      "a v",
      "Ġ ke",
      "f ul",
      "Ġwind ow",
      "ĠR E",
      "Ġle t",
      "ck s",
      "IN E",
      "Ġm en",
      "Ġp r",
      "ĠM AR",
      "p e",
      "ig n",
      "Ġre ad",
      "i gh",
      "an s",
      "a ge",
      "Ġth ou",
      "ĠM a",
      "ri es",
      "Ġst re",
      "ĠRO OM",
      "Ġh ow",
      "Ġstand s",
      "U L",
      "A B",
      "or d",
      "Ġgo es",
      "Ġr es",
      "udd en",
      "n er",
      "Ġse c",
      "ĠO F",
      "ak ing",
      "ER S",
      "au gh",
      "Ġt han",
      "Ġb ot",
      "Ġpull s",
      "ch ing",
      "Ġh u",
      "g s",
      "ĠC O",
      "ĠS C",
      "i ous",
      "Ġre m",
      "Ġ Sc",
      "Ġt able",
      "Ġcom p",
      "Ġex p",
      "ĠC LO",
      "Ġmo ves",
      "Ġac ross",
      "Ġan other",
      "ĠJ e",
      "Ġd ay",
      "i x",
      "Ġha pp",
      "Ġhe l",
      "r d",
      "Ġbe g",
      "Ġd ri",
      "ĠN ow",
      "Ġs it",
      "Ġpe ople",
      "Ġne ed",
      "Ġget s",
      "Ġsm il",
      "ĠB O",
      "Ġo ld",
      "l ed",
      "he n",
      "ĠY es",
      "Ġsh o",
      "Ġs its",
      "H ER",
      "Ġre ac",
      "Ġ 2",
      "in u",
      "ol low",
      "Ġw r",
      "Ġne ver",
      "Ġm u",
      "ĠC h",
      "g er",
      "udden ly",
      "Ġwh ich",
      "Ġb r",
      "Ġf ri",
      "Ġclo s",
      "ĠSH OT",
      "Ġc or",
      "Ġf ind",
      "Ġb ed",
      "ĠH AR",
      "a w",
      "Ġfir st",
      "ĠY eah",
      "C T",
      "Ġs ur",
      "Ġne w",
      "Ġhe ar",
      "N Y",
      "Ġa fter",
      "a z",
      "ĠA n",
      "Ġp ass",
      "ar y",
      "Ġa d",
      "k ay",
      "Ġn ight",
      "Ġr u",
      "Ġw all",
      "Ġse es",
      "Ġb lo",
      "Ġp re",
      "t or",
      "I ON",
      "Ġr un",
      "o ok",
      "ĠH is",
      "ĠN e",
      "O V",
      "x t",
      "Ġme an",
      "Ġdid n",
      "k es",
      "ĠD A",
      "Ġdoes n",
      "ĠM AN",
      "Ġund er",
      "Ġp ick",
      "Ġpl ay",
      "Ġflo or",
      "on s",
      "Ġcont inu",
      "ia n",
      "ĠB e",
      "Ġsp e",
      "Ġf ollow",
      "Ġe ven",
      "ĠM R",
      "ĠI f",
      "Ġd r",
      "u p",
      "Ġsc re",
      "Ġsh ow",
      "li ght",
      "Ġt e",
      "p h",
      "ĠH E",
      "Ġw om",
      "Ġb ar",
      "ĠCLO SE",
      "ĠS ta",
      "ĠL e",
      "ĠL E",
      "Ġd ra",
      "Ġs low",
      "Ġfe el",
      "Ġf o",
      "ĠA ll",
      "ta in",
      "Ġbe c",
      "ĠC AR",
      "! !",
      "ĠG od",
      "Ġar m",
      "Ġbe at",
      "H N",
      "ĠN ot",
      "u ff",
      "Ġl ast",
      "Ġs k",
      "ĠJo h",
      "Ġph one",
      "or m",
      "m m",
      "g et",
      "Ġagain st",
      "c o",
      "Ġh ouse",
      "r en",
      "Ġhim self",
      "Ġopen s",
      "ĠS E",
      "ON D",
      "OU N",
      "Ġg ir",
      "Ġmu ch",
      "v ed",
      "b ody",
      "ĠWh y",
      "ec t",
      "Ġhel p",
      "i ke",
      "Ġf in",
      "ĠR e",
      "m o",
      "Ġl augh",
      "Ġs il",
      "ĠJ ack",
      ". \"",
      "Ġth ing",
      "ĠF ran",
      "Ġwa it",
      "Ġmo ve",
      "L A",
      "s h",
      "Ġn od",
      "ĠH ar",
      "Ġ .",
      "Ġre al",
      "one y",
      "Ġre ally",
      "ĠR o",
      "at ed",
      "IC K",
      "w e",
      "Ġne xt",
      "U M",
      "Ġ end",
      "Ġc ra",
      "i ly",
      "n ed",
      "Ġpo in",
      "Ġsto ps",
      "ĠJ E",
      "ĠAN G",
      "on na",
      "ĠA R",
      "Ġbl ack",
      "Ġs ound",
      "Ġf all",
      "Ġsmil es",
      "Ġsm all",
      "Ġc le",
      "at or",
      "A P",
      "a ra",
      "m e",
      "Ġd ro",
      "ri d",
      "ĠA m",
      "AN N",
      "ET T",
      "Ġfri end",
      "ia l",
      "Ġlo ve",
      "Ġe ach",
      "ĠJoh n",
      "Ġg onna",
      "ĠV O",
      "Ġb re",
      "u e",
      "Ġb ig",
      "Ġpl ace",
      "ĠL u",
      "Ġsa id",
      "T H",
      "Ġk ill",
      "OU G",
      "Ġk id",
      "w er",
      "Ġle a",
      "Ġli fe",
      "Ġgu n",
      "ĠM ay",
      "ou gh",
      "l er",
      "ĠD O",
      "Ġp er",
      "at es",
      "ĠHe y",
      "O O",
      "Q U",
      "ĠA r",
      "ĠB ILL",
      "Ġste ps",
      "ent ly",
      "Ġthou ght",
      "ĠB L",
      "ĠJO HN",
      "ĠS h",
      "AN E",
      "Ġ Cha",
      "an ce",
      "ĠM y",
      "l ess",
      "Ġg i",
      "ĠD E",
      "Ġ Z",
      "ll y",
      "b b",
      "Ġin ter",
      "Ġalo ng",
      "ĠL et",
      "n ess",
      "Ġh or",
      "t en",
      "O P",
      "Ġp ar",
      "ta n",
      "ta nt",
      "an e",
      "Ġh ome",
      "y ing",
      "ĠRO B",
      "Ġfe et",
      "Ġim p",
      "ĠJ ust",
      "ĠO n",
      "Ġstar es",
      "ull y",
      "p le",
      "ĠB AR",
      "Ġde ad",
      "Ġstar t",
      "ene d",
      "v in",
      "Ġth ree",
      "Ġt rying",
      "Ġne ar",
      "IC H",
      "b o",
      "ĠO FF",
      "Ġwa ter",
      "Ġstre et",
      "OU SE",
      "Ġst ra",
      "Ġt ru",
      "ĠI s",
      "Ġnod s",
      "AT E",
      "ĠW ho",
      "OU S",
      "Ġf ire",
      "Ġg ive",
      "Ġf uck",
      "Ġd ark",
      "Ġb us",
      "Ġput s",
      "ad y",
      "ĠVO ICE",
      "R I",
      "p t",
      "Ġv o",
      "ĠC AM",
      "et h",
      "i ed",
      "Ġo wn",
      "Ġl ist",
      "ĠJe an",
      "Ġgl ass",
      "ĠW here",
      "a pp",
      "ĠW H",
      "ĠB l",
      "an k",
      "i o",
      "Ġdo ing",
      "ti ve",
      "ĠCH ARL",
      "r es",
      "Ġf ac",
      "Ġit s",
      "ĠA l",
      "ĠP e",
      "Ġsu re",
      "le ase",
      "Ġwe ll",
      "Ġslow ly",
      "V ER",
      "ĠT o",
      "ĠS te",
      "um p",
      "Ġc row",
      "at ing",
      "ot s",
      "ĠANG LE",
      "IS S",
      "ĠFR AN",
      "at ter",
      "Ġm ay",
      "Ġe ver",
      "Ġm akes",
      "way s",
      "Ġcom ing",
      "ĠD ON",
      "Ġle ft",
      "Ġin side",
      "ER I",
      "Ġha rd",
      "e y",
      "he ad",
      "ĠB R",
      "Ġh ur",
      "ro om",
      "ent s",
      "Ġbe lie",
      "ĠL ook",
      "ĠO ne",
      "Ġc are",
      "ĠL U",
      "or ry",
      "Ġm ust",
      "c ont",
      "Ġn ame",
      "Ġsec ond",
      "Ġs et",
      "ĠA L",
      "Ġm in",
      "Ġc our",
      "out h",
      "Ġs er",
      "ĠST E",
      "Ġcrow d",
      "Ġsto p",
      "c tion",
      "Ġthe se",
      "Ġgra bs",
      "Ġdr ink",
      "Ġg reat",
      "Ġbe ing",
      "Ġapp ro",
      "Ġb ur",
      "Ġreac hes",
      "Ġwom an",
      "ON E",
      "Ġqu ick",
      "V IN",
      "is es",
      "ĠC o",
      "t on",
      "i et",
      "am s",
      "ĠF or",
      "ut e",
      "Ġd ress",
      "k ing",
      "Ġfe w",
      "ri ed",
      "f er",
      "ĠB E",
      "Ġj o",
      "AT H",
      "o ld",
      "Ġbeg ins",
      "Ġb ody",
      "Ġas s",
      "Ġon to",
      "if e",
      "Ġwh ite",
      "ĠMa x",
      "ER T",
      "S ON",
      "ar ing",
      "Ġwor d",
      "I A",
      "Ġstand ing",
      "Ġany thing",
      "Ġwh y",
      "Ġm oney",
      "I O",
      "ir s",
      "um b",
      "Ġw on",
      "ET H",
      "L ER",
      "it c",
      "Ġnot hing",
      "Ġha ng",
      "W AY",
      "Ġclo se",
      "d ay",
      "Ġc am",
      "Ġbo y",
      "Ġen ters",
      "Ġhold s",
      "o ve",
      "Ġa ir",
      "IS T",
      "Ġse en",
      "ĠS t",
      "Ġwh ile",
      "M A",
      "u b",
      "Ġs ign",
      "ou g",
      "ĠT R",
      "ĠHe l",
      "Ġp ast",
      "ĠH A",
      "AR T",
      "Ġru ns",
      "g es",
      "ou n",
      "Ġf ar",
      "ver s",
      "Ġbu ild",
      "a ter",
      "s p",
      "Ġc at",
      "li ce",
      "d d",
      "Ġth row",
      "Ġbet ter",
      "ĠCHARL IE",
      "I AN",
      "Ġbot h",
      "Ġt r",
      "ĠHAR RY",
      "ĠC ome",
      "ES S",
      "le ep",
      "Ġp ain",
      "I X",
      "ĠC ar",
      "Ġf ather",
      "Ġtur n",
      "ĠH OUSE",
      "ĠW ill",
      "pp ing",
      "Ġwat ches",
      "Ġch ild",
      "mo st",
      "Ġkn e",
      "ĠB EN",
      "ĠP A",
      "U LL",
      "ĠN E",
      "AD E",
      "Ġha lf",
      "Ġy ears",
      "id es",
      "Ġw ar",
      "pp ed",
      "Ġs uddenly",
      "Ġe l",
      "ĠR A",
      "ĠG ood",
      "Ġre p",
      "S S",
      "er ing",
      "ĠA t",
      "as h",
      "ĠLu ke",
      "b y",
      "ti l",
      "ard s",
      "ĠT han",
      "ĠMA X",
      "m ed",
      "Ġbelie ve",
      "t es",
      "ĠW hen",
      "ĠD oug",
      "an ts",
      "ak s",
      "Ġsay s",
      "ĠO kay",
      "ES T",
      "d e",
      "Ġle ad",
      "el s",
      "Ġgu y",
      "D ER",
      "ĠCha r",
      "Ġth ose",
      "Ġgir l",
      "Ġs n",
      "ĠJ ACK",
      "Ġ 3",
      "ĠL ou",
      "m p",
      "Ġm ar",
      "Ġc ross",
      "Ġpick s",
      "Ġs ir",
      "Ġth ings",
      "ĠL A",
      "ĠMR S",
      "Ġke ep",
      "r is",
      "t ur",
      "Ġem p",
      "IN U",
      "O CK",
      "ĠM an",
      "en ing",
      "us hes",
      "ID E",
      "Ġget ting",
      "ta nd",
      "Ġl ar",
      "ud e",
      "IN D",
      "Ġyou ng",
      "ĠP R",
      "ie ld",
      "ĠD OUG",
      "0 0",
      "Ġle ave",
      "Ġal ways",
      "ĠCAM ER",
      "Ġs qu",
      "ĠE very",
      "Ġdes k",
      "T ON",
      "Ġh igh",
      "m y",
      "Ġa p",
      "get her",
      "Ġf i",
      "d er",
      "Ġd ire",
      "ĠHar ry",
      "ĠW ith",
      "ĠB U",
      "ĠM ICH",
      "i ble",
      "OL D",
      "G ER",
      "Ġas k",
      "Ġb reat",
      "Ġwat ch",
      "we en",
      "Ġm other",
      "ĠC OR",
      "AS H",
      "in es",
      "r or",
      "Ġvo ice",
      "Ġ hat",
      "Ġb it",
      "ap er",
      "Ġs ame",
      "OT HER",
      "Ġsit ting",
      "li c",
      "ĠS P",
      "ĠB ond",
      "Ġbec ause",
      "Ġlo t",
      "Ġar ms",
      "S H",
      "z z",
      "Ġp a",
      "Ġtalk ing",
      "Ġal most",
      "Ġt er",
      "Ġc han",
      "ĠB ill",
      "un k",
      "M ENT",
      "Ġk iss",
      "m in",
      "Ġm ade",
      "l a",
      "Ġc ut",
      "Ġe le",
      "Ġsh ot",
      "IT H",
      "Ġwat ching",
      "tion s",
      "ĠG R",
      "ri ght",
      "Ġ ]",
      "RO OM",
      "Ġund ers",
      "a il",
      "ĠL OU",
      "Ġg round",
      "ĠMr s",
      "id ent",
      "f ully",
      ".. ..",
      "Ġbet ween",
      "Ġb ad",
      "ĠA P",
      "ĠG o",
      "Ġt ries",
      "ĠM ic",
      "Ġfor ward",
      "E LL",
      "Ġto gether",
      "Ġk ind",
      "Ġto p",
      "c us",
      "Ġan s",
      "Ġm outh",
      "Ġsu pp",
      "c er",
      "ĠB ACK",
      "o o",
      "Ġoff ice",
      "ĠM EL",
      "ck ing",
      "ab y",
      "n o",
      "Ġm us",
      "ĠM ary",
      "v is",
      "Ġhe ard",
      "Ġwor ld",
      "ĠE ll",
      "Ġsm ile",
      "Ġcha ir",
      "Ġro ll",
      "Ġlar ge",
      "m a",
      "ch o",
      "AT ER",
      "Ġf am",
      "m b",
      "ĠH er",
      "ĠC an",
      "Ġa w",
      "ĠMICH A",
      "ous ly",
      "Ġto ld",
      "ĠM E",
      "id d",
      "ĠH O",
      "Ġhe ll",
      "Ġtoward s",
      "Ġs orry",
      "ra y",
      "ĠT w",
      "ĠF A",
      "ck ed",
      "Ġha ir",
      "Ġblo od",
      "ĠMICHA EL",
      "in ess",
      "Ġ1 9",
      "ĠCONT INU",
      "at s",
      "ĠNe w",
      "Ġcon f",
      "P ER",
      "Ġhold ing",
      "Ġf ing",
      "ĠB et",
      "Ġout side",
      "Ġen ough",
      "Ġe ar",
      "i b",
      "ĠD R",
      "r ist",
      "us h",
      "Ġs ing",
      "an ces",
      "ĠROB IN",
      "Ġre d",
      "ĠJean ne",
      "ĠS ome",
      "ie w",
      "ĠI nd",
      "ĠS U",
      "I KE",
      "M Y",
      "c hed",
      "ĠG e",
      "ANN E",
      "Ġlight s",
      "Ġp art",
      "Ġgi ves",
      "ct or",
      "Ġf ree",
      "ĠB o",
      "au ti",
      "em ber",
      "ĠCAMER A",
      "T LE",
      "or k",
      "o f",
      "Ġin s",
      "ĠD e",
      "Ġunders tand",
      "Ġb ag",
      "Ġis n",
      "ĠFran k",
      "ir t",
      "IT E",
      "ĠA re",
      "Ġm ind",
      "Ġcor ner",
      "Ġco ver",
      "Ġ #",
      "Ġbo x",
      "ĠB ob",
      "Ġevery thing",
      "Ġfi gu",
      "s o",
      "ĠB en",
      "L Y",
      "ĠDA V",
      "Ġf our",
      "Ġl ine",
      "Ġey e",
      "Ġm or",
      "A K",
      "ĠD av",
      "Ġquick ly",
      "IS E",
      "Ġha ll",
      "Ġg re",
      "ĠST RE",
      "ĠH o",
      "ĠO UT",
      "ĠW ILL",
      "um ps",
      "Ġqu iet",
      "er v",
      "Ġcom m",
      "Ġme et",
      "ĠS uddenly",
      "ĠGe or",
      "ĠYou r",
      "c om",
      "an g",
      "A H",
      "D Y",
      "ĠT ED",
      "c y",
      "Ġsh it",
      "T OR",
      "d ing",
      "ĠE D",
      "ĠSTRE ET",
      "Ġf li",
      "en se",
      "ĠS e",
      "Ġh it",
      "Ġgu ys",
      "r in",
      "Ġm ight",
      "al s",
      "ĠAnd y",
      "Ġbuild ing",
      "Ġmo ving",
      "Ġun til",
      "h i",
      "e k",
      "ow er",
      "Ġcontinu es",
      "ĠL O",
      "ent y",
      "Ġwho le",
      "ran ce",
      "g ra",
      "ta l",
      "ĠD id",
      "Ġwith out",
      "Ġres p",
      "Ġ ed",
      "Ġc ur",
      "r ing",
      "ĠP AT",
      "Ġro ad",
      "I K",
      "Ġm iss",
      "ĠE N",
      "ers on",
      "ia nt",
      "Ġsw e",
      "Ġalo ne",
      "ĠDav id",
      "A GE",
      "ĠMEL VIN",
      "Ġst ud",
      "ĠV al",
      "Ġel se",
      "ĠDAV ID",
      "U G",
      "I AL",
      "ĠS AM",
      "Ġwait ing",
      "ĠY OU",
      "ĠMAR Y",
      "Ġsha kes",
      "ĠT V",
      "i k",
      "u ally",
      "Ġother s",
      "Ġemp ty",
      "Ġf ull",
      "Ġr est",
      "Ġab ove",
      "r om",
      "Ġbo ok",
      "Ġs on",
      "Ġd if",
      "ĠJE ANNE",
      "ir d",
      "ĠG et",
      "Ġex c",
      "ĠE M",
      "Ġin c",
      "Ġon ce",
      "OR D",
      "or y",
      "as ter",
      "Ġg one",
      "Ġl and",
      "un g",
      "tan ce",
      "Ġt aking",
      "Ġp ri",
      "ĠC ap",
      "I P",
      "ic al",
      "i er",
      "ĠD an",
      "ĠJO E",
      "Ġf ill",
      "ĠC he",
      "Ġre ve",
      "Ġ rac",
      "ĠMay be",
      "te ly",
      "ĠChar lie",
      "ri c",
      "ĠG E",
      "Ġf ight",
      "Ġhead s",
      "ISS OL",
      "ĠCO LE",
      "Y N",
      "n ie",
      "Ġ ent",
      "ĠP H",
      "Ġd one",
      "is ter",
      "ri e",
      "ĠE L",
      "Ġde c",
      "ran ge",
      "Ġcour se",
      "ĠGeor ge",
      "Ġ *",
      "ĠS am",
      "? !",
      "c ing",
      "ĠD ISSOL",
      "C A",
      "Ġb low",
      "ĠM e",
      "Ġt ou",
      "A IN",
      "m er",
      "ow s",
      "Ġapp ears",
      "lo r",
      "Ġo kay",
      "ĠS CH",
      "am p",
      "I V",
      "ĠE LL",
      "Ġans wer",
      "ĠU P",
      "Ġrun ning",
      "ĠC om",
      "Ġcou n",
      "ĠPe ter",
      "I RE",
      "Ġb ro",
      "ĠH EL",
      "Ġco ff",
      "Ġp ay",
      "Ġwr ong",
      "Ġpre t",
      "Ġre c",
      "art ment",
      "Ġdis app",
      "ĠU n",
      "ĠM OR",
      "Ġbo ys",
      "s es",
      "Ġsee ms",
      "ĠCh rist",
      "t ure",
      "Ġcle ar",
      "P H",
      "Ġcon s",
      "ot h",
      "re ady",
      "ĠB ED",
      "ART MENT",
      "ĠJ es",
      "ri ck",
      "Ġhu ge",
      "Ġt on",
      "OT T",
      "Ġb aby",
      "ĠDISSOL VE",
      "ANT E",
      "Ġdro ps",
      "am es",
      "Ġtru ck",
      "K Y",
      "Ġ 4",
      "nd red",
      "Ġsome one",
      "ĠD ANTE",
      "Ġcl im",
      "Ġfall s",
      "ĠB u",
      "Ġrem ember",
      "Ġo b",
      "ĠM el",
      "Ġwh is",
      "p l",
      "Ġen ter",
      "Ġcont ro",
      "Ġde ep",
      "RE E",
      "B ER",
      "R AN",
      "ĠR AND",
      "Ġshould er",
      "ĠBet ty",
      "Ġp ie",
      "al c",
      "Ġsh ut",
      "ĠGE OR",
      "Ġp ress",
      "ĠE mm",
      "ti e",
      "Ġmo st",
      "and hi",
      "OUN D",
      "Ġal ready",
      "ĠJes us",
      "Ġsta y",
      "a ps",
      "c c",
      "i ps",
      "Ġre tur",
      "i v",
      "on y",
      "ĠB r",
      "Ġst ru",
      "Ġs leep",
      "Ġin d",
      "ĠG U",
      "ĠG andhi",
      "IT CH",
      "Ġco ll",
      "Ġfo ot",
      "EN E",
      "Ġbeg in",
      "Ġs li",
      "Ġwalk ing",
      "ĠP ET",
      "AL C",
      "ĠOFF ICE",
      "Ġman y",
      "ĠK ATE",
      "Ġp ic",
      "K ER",
      "are d",
      "ĠCONTINU OUS",
      "in t",
      "Ġh ot",
      "Ġgl ances",
      "in ing",
      "er a",
      "ck et",
      "ke y",
      "dd ie",
      "Ġqu es",
      "ĠGEOR GE",
      "ĠM o",
      "Ġc ho",
      "ĠP OV",
      "ac es",
      "Ġbus iness",
      "f or",
      "en er",
      "Ġp an",
      "ĠE ddie",
      "un ny",
      "ĠJE FF",
      "w here",
      "Ġb ra",
      "ad d",
      "Ġsa w",
      "Ġp lease",
      "Ġg rou",
      "end s",
      "ĠJ ANE",
      "Ġgu ess",
      "Ġle ans",
      "Ġ es",
      "Ġse at",
      "ĠAP ARTMENT",
      "N ING",
      "ĠJ UD",
      "AT OR",
      "KE Y",
      "Ġhu ndred",
      "ri ous",
      "ĠP at",
      "Ġstar ing",
      "IX ON",
      "ĠTw o",
      "B O",
      "ĠN IXON",
      "Ġw ife",
      ". ]",
      "u al",
      "Ġ 5",
      "Ġ QU",
      "ĠC L",
      "Ġsu b",
      "Ġread y",
      "Ġlo ud",
      "e ps",
      "Ġsc ene",
      "ĠSE C",
      "c le",
      "Ġscre en",
      "Ġa in",
      "Ġb all",
      "Ġkn o",
      "Ġv iew",
      "auti ful",
      "ĠC OM",
      "ar l",
      "Ġa head",
      "Ġb es",
      "Ġwe aring",
      "f orm",
      "Ġ ide",
      "Ġh um",
      "ĠM ike",
      "da m",
      "Ġstra ight",
      "c a",
      "in ed",
      "ĠD r",
      "p ing",
      "I B",
      "Ġt ry",
      "Ġbreat h",
      "G ON",
      "ok ing",
      "ĠFRAN K",
      "ĠMic ha",
      "a x",
      "Ġc r",
      "Ġs ix",
      "re t",
      "Ġm aking",
      "Ġf ive",
      "ver al",
      "ĠF OR",
      "ĠThan k",
      "um ber",
      "iz e",
      "ious ly",
      "ĠT er",
      "Ġt en",
      "Ġt re",
      "Ġlo w",
      "il ing",
      "Ġem b",
      "Ġpoin t",
      "Ġthou gh",
      "k y",
      "er ic",
      "Ġp aper",
      "c ed",
      "or s",
      "ĠW E",
      "Ġreve al",
      "ĠB ETT",
      "Ġst uff",
      "OM AN",
      "Ġmor ning",
      "or row",
      "Ġc ig",
      "ap e",
      "Ġcomp le",
      "ĠJOHN NY",
      "ĠJ IM",
      "AT ION",
      "Ġcha r",
      "Ġdo g",
      "Ġdo ll",
      "Ġl ate",
      "Ġw ond",
      "ĠT ed",
      "Ġdra w",
      "Ġe v",
      "rac k",
      "ĠE x",
      "A C",
      "ĠB OND",
      "Ġher self",
      "a it",
      "m en",
      "ĠH ALL",
      "am ing",
      "Ġcou nt",
      "ĠD U",
      "l ain",
      "ĠAm eric",
      "ĠLou is",
      "t hes",
      "Ġs un",
      "Ġy et",
      "AS S",
      "Ġwork ing",
      "ĠT RA",
      "ĠMicha el",
      "ĠBETT Y",
      "D A",
      "D IE",
      "Ġs y",
      "Ġp ur",
      "Ġre f",
      "Ġpo lice",
      "ĠAND Y",
      "ĠB ar",
      "ĠW AL",
      "Ġthrow s",
      "Ġf ore",
      "ĠP o",
      "Ġfigu re",
      "d u",
      "it her",
      "i ence",
      "m ing",
      "Ġp erson",
      "ac hes",
      "Ġlea ves",
      "Ġb est",
      "Ġwant ed",
      "Ġsur p",
      "Ġhapp ened",
      "ra l",
      "Ġsta irs",
      "is ts",
      "Ġe as",
      "Ġyour self",
      "ĠT W",
      "Ġdoor s",
      "CT OR",
      "Ġp ack",
      "ĠR a",
      "Ġwould n",
      "Ġcoff ee",
      "Ġv is",
      "Ġsha d",
      "ĠA T",
      "Ġbe autiful",
      "ĠF rom",
      "ĠCAR OL",
      "itc hen",
      "U P",
      "Ġan g",
      "Ġac c",
      "ĠSc ot",
      "Ġf ur",
      "ĠL ATER",
      "ĠV AL",
      "Ġcou ple",
      "t ly",
      "it ed",
      "our s",
      "ĠBL ACK",
      "I Z",
      "ur es",
      "Ġfriend s",
      "Ġmay be",
      "is hed",
      "ĠM iss",
      "ĠC AP",
      "ĠE LE",
      "ĠMel vin",
      "e ver",
      "Ġm ach",
      "Ġex t",
      "Ġgrou p",
      "ĠH ere",
      "Ġb ull",
      "Ġne ck",
      "Ġpr es",
      "Ġexp lo",
      "Ġc re",
      "Ġp ause",
      "Ġli ve",
      "Ġgot ta",
      "Ġchild ren",
      "on es",
      "Ġp ark",
      "le as",
      "Ġs in",
      "Ġknow s",
      "Ġpo s",
      "Ġclos es",
      "Ġhor se",
      "Ġb at",
      "ĠM IKE",
      "ĠP res",
      "Ġk itchen",
      "Ġed ge",
      "or n",
      "Ġdif fer",
      "E Y",
      "ĠBO Y",
      "ĠPA UL",
      "ĠED DIE",
      "Ġc ame",
      "ĠE li",
      "Ġsil ence",
      "ĠG u",
      "Ġj ob",
      "ĠE ng",
      "ĠSC OTT",
      "Ġli f",
      "EL D",
      "Ġra d",
      "it ch",
      "Ġclo thes",
      "Ġkid s",
      "Ġy es",
      "ĠD AN",
      "R IS",
      "Ġa li",
      "AN S",
      "Ġpass es",
      "cho ol",
      "Ġ Q",
      "Ġfuck ing",
      "ĠWH ITE",
      "Ġdress ed",
      "B Y",
      "Ġb ath",
      "Ġm atter",
      "ER E",
      ". )",
      "t he",
      "Ġw ood",
      "Ġc ab",
      "Ġac t",
      "tic ally",
      "Ġcontinu ing",
      "Ġbre ak",
      "Ġli ving",
      "Ġbes ide",
      "idd le",
      "V EN",
      "ĠPET ER",
      "are t",
      "ĠS im",
      "Ġn ice",
      "Ġfollow s",
      "l ish",
      "al m",
      "Ġclos er",
      "Ġword s",
      "Ġide a",
      "Ġno tic",
      "se l",
      "Ġmus ic",
      "Ġto day",
      "Ġat ta",
      "Ġdis tance",
      "ut h",
      "un ch",
      "Ġlaugh s",
      "ĠLU KE",
      "Ġ 8",
      "ĠBED ROOM",
      "Ġs chool",
      "ve l",
      "Ġde f",
      "Ġal so",
      "Ġus e",
      "ten tion",
      "ĠS p",
      "I F",
      "Ġf ine",
      "ld er",
      "ĠS u",
      "as k",
      "Ġdire ction",
      "Ġfam ily",
      "Ġto r",
      "Ġh its",
      "ĠS ir",
      "Ġpoin ts",
      "ĠH AN",
      "pp er",
      "N IE",
      "o ke",
      "Ġd an",
      "Ġf a",
      "E C",
      "ti m",
      "ĠS y",
      "Ġde p",
      "Ġin t",
      "Ġhe art",
      "LA INE",
      "Ġre g",
      "Ġpl an",
      "AS T",
      "Ġmin ute",
      "Y ST",
      "n el",
      "Ġn erv",
      "OL M",
      "Ġsk y",
      "UD E",
      "g on",
      "Ġf ast",
      "ir g",
      "ul t",
      "Ġbr other",
      "Ġton ight",
      "Ġp ower",
      "at ch",
      "Ġl ater",
      "Ġpret ty",
      "ĠS IM",
      "IS H",
      "ĠM ALC",
      "ĠE LAINE",
      "Ġco ld",
      "Ġday s",
      "Ġy ear",
      "ĠO r",
      "z y",
      "Ġhe av",
      "Ġl im",
      "as on",
      "Ġread s",
      "Ġcam era",
      "ĠMALC OLM",
      "U CK",
      "Ġde al",
      "W N",
      "ĠW OMAN",
      "Ġspe ed",
      "d es",
      "Ġm iddle",
      "Ġw ants",
      "ĠS A",
      "ĠH an",
      "g ing",
      "ĠC ON",
      "ab e",
      "ĠLU C",
      "R ICK",
      "Ġs im",
      "Ġm on",
      "Ġlo st",
      "Ġwas n",
      "Ġappro aches",
      "u g",
      "Ġf ly",
      "Ġf ound",
      "ir ty",
      "ĠHEL EN",
      "Ġplay ing",
      "Ġwom en",
      "ĠPres ident",
      "Ġk ick",
      "Ġus ed",
      "Ġfin ally",
      "ĠV IK",
      "Ġr ises",
      "Ġbot tle",
      "le y",
      "Ġstru gg",
      "Ġs ight",
      "ĠV EN",
      "Ġj umps",
      "Ġem er",
      "z e",
      "Ġm il",
      "ab ly",
      "ĠDA VE",
      "Ġte le",
      "ire d",
      "Ġha ving",
      "Ġbr ing",
      "Ġspe ak",
      "Ġpar ty",
      "Ġdri ve",
      "k en",
      "Ġc ase",
      "Ġen g",
      "ĠDE AN",
      "Ġkne w",
      "Ġap artment",
      "T he",
      "ut es",
      "AR K",
      "Ġtw enty",
      "er y",
      "ĠJ im",
      "N IGHT",
      "Ġ 6",
      "Ġc li",
      "ĠP lease",
      "Ġt rou",
      "Ġs light",
      "ĠA fter",
      "OU R",
      "Ġpo cket",
      "Ġho pe",
      "ress ion",
      "ĠVIK TOR",
      "Ġw ent",
      "ĠI S",
      "ĠT ra",
      "ĠM OTHER",
      "ag es",
      "ĠB UD",
      "ĠLE E",
      "Ġcontro l",
      "Ġsh ip",
      "A CH",
      "ĠS ara",
      "ĠV irg",
      "ĠMOR NING",
      "T Y",
      "Ġg r",
      "Ġpr ot",
      "ĠHA W",
      "O ON",
      "ĠR ob",
      "ĠK ate",
      "Ġph ot",
      "ĠD EL",
      "um e",
      "ĠNE W",
      "Ġp ushes",
      "le t",
      "Ġbe low",
      "ĠR ight",
      "l and",
      "Ġm a",
      "ĠRO GER",
      "Ġd ist",
      "Ġn umber",
      "ce pt",
      "ir ror",
      "Ġso ld",
      "Ġhe ars",
      "Ġat tention",
      "ec ause",
      "\" .",
      "Ġf if",
      "Ġsu ch",
      "f ied",
      "Ġsho ot",
      "f ra",
      "Ġ ?",
      "ĠB IAL",
      "YST OCK",
      "ĠBIAL YSTOCK",
      "Ġd ie",
      "Ġf il",
      "IT TLE",
      "os ed",
      "Ġm ess",
      "ri ly",
      "Ġg row",
      "ia m",
      "Ġd am",
      "Ġc ir",
      "ĠM u",
      "end ing",
      "ĠW o",
      "Ġsay ing",
      "ĠJo e",
      "Ġcross es",
      "I AM",
      "i ot",
      "Ġcha ng",
      "Ġf ra",
      "ti ce",
      "Ġth r",
      "ur ing",
      "ĠF O",
      "Ġj ack",
      "ĠP ro",
      "ĠCap tain",
      "D AY",
      "ter n",
      "is on",
      "ĠM ar",
      "Ġst ep",
      "Ġad d",
      "Ġ &",
      "Ġd re",
      "as hes",
      "AR ON",
      "L D",
      "ĠT E",
      "Ġle g",
      "Ġpro ble",
      "ĠWo ody",
      "IT Y",
      "K MAN",
      "M S",
      "ĠI T",
      "Ġto m",
      "RAN CE",
      "Ġcig aret",
      "ĠH aw",
      "ĠJ A",
      "Ġare a",
      "U RE",
      "Ġg as",
      "ĠF ADE",
      "p ed",
      "ĠD ave",
      "ĠJe ff",
      "Ġ 7",
      "Ġo pp",
      "ĠB ecause",
      "ĠP ri",
      "Ġre ach",
      "Ġsc ra",
      "Ġcall ed",
      "h h",
      "ĠA ny",
      "AT HER",
      "Ġso ft",
      "ber t",
      "Ġmach ine",
      "ou nt",
      "Ġin st",
      "Ġpo ss",
      "Ġar ri",
      "i ra",
      "Ġse veral",
      "ĠT ake",
      "ĠL ike",
      "OT H",
      "US T",
      "ĠHAW KEY",
      "ĠT ell",
      "Ġappro ach",
      "ĠVEN KMAN",
      "ĠHAWKEY E",
      "Ġm ag",
      "LE T",
      "Ġpr om",
      "Ġrem ain",
      "Ġlea ving",
      "g n",
      "le x",
      "ic tor",
      "ĠHel lo",
      "Ġt ears",
      "ĠN ED",
      "Ġgu ard",
      "Ġag o",
      "-- --",
      "ĠVirg il",
      "in y",
      "ĠH OW",
      "ate ly",
      "b all",
      "Ġl a",
      "Ġpie ce",
      "ff ic",
      "Ġkill ed",
      "ĠLOU IS",
      "Ġsp ace",
      "Ġex its",
      "ation s",
      "Ġfac es",
      "Ġpic ture",
      "Ġcould n",
      "ĠJohn ny",
      "ĠEng lish",
      "s ta",
      "ĠJ AR",
      "Ġgir ls",
      "Ġg az",
      "ĠRo ger",
      "Ġt rans",
      "Ġde ath",
      "ĠSCOTT IE",
      "Ġto wn",
      "Ġre co",
      "Ġsp ec",
      "ĠInd y",
      "ru gs",
      "ĠNot hing",
      "Ġfing er",
      "D ING",
      "Ġf ield",
      "ĠH i",
      "ĠA M",
      "ERS ON",
      "Ġspe aks",
      "ĠAl vin",
      "Ġwe ek",
      "ĠSta r",
      "s it",
      "ĠR us",
      "OR E",
      "Ġso on",
      "ĠWILL IAM",
      "G U",
      "c ent",
      "ĠS m",
      "ĠB LO",
      "P OR",
      "us ed",
      "Ġdoor way",
      "fra id",
      "Ġtom orrow",
      "Ġf ood",
      "ĠB AS",
      "EN CE",
      "LE Y",
      "Ġoff ic",
      "ĠOFF IC",
      "I VE",
      "Ġsh out",
      "Ġle ts",
      "Ġcar rying",
      "Ġsw ord",
      "Ġwr it",
      "Ġcle an",
      "sel ves",
      "Ġa ud",
      "Ġha ven",
      "ĠDO OR",
      "ĠW ait",
      "ĠTH REE",
      "Ġqu ite",
      "p o",
      "Ġhang s",
      "Ġr ing",
      "Ġread ing",
      "in ner",
      "Ġdes er",
      "ĠF L",
      "ous and",
      "is to",
      "Ġto ok",
      "Ġp or",
      "ĠR ome",
      "ak en",
      "ĠU N",
      "en ter",
      "y le",
      "Ġm ain",
      "Ġg ame",
      "Ġat t",
      "IN ER",
      "Ġques tion",
      "ent le",
      "ĠTW O",
      "m per",
      "Ġsmil ing",
      "ĠHel en",
      "Ġ ir",
      "Ġc e",
      "Ġh on",
      "ĠC R",
      "Ġha r",
      "ĠF in",
      "Ġco at",
      "Ġbl ue",
      "Ġor der",
      "Ġcall s",
      "ti es",
      "ĠM ED",
      "Ġst r",
      "Ġmy self",
      "an na",
      "il s",
      "Ġchan ge",
      "Ġb ow",
      "Ġy ell",
      "ĠC A",
      "Ġt ight",
      "rac e",
      "Ġm irror",
      "ĠS M",
      "Ġcoun ter",
      "ĠS ID",
      "EN D",
      "c ha",
      "Ġche st",
      "Ġwond er",
      "ĠT ER",
      "ĠS to",
      "Ġin v",
      "ĠC AT",
      "Ġt y",
      "in er",
      "Ġa fraid",
      "ĠT IM",
      "c he",
      "Ġ round",
      "Ġc ity",
      "Ġhapp y",
      "ĠCAP T",
      "Ġd ou",
      "ĠE ARL",
      "Ġwhe el",
      "ĠRAND AL",
      "g ed",
      "i or",
      "u lo",
      "Ġhe sit",
      "Ġtur ning",
      "art h",
      "OUG H",
      "Ġphot o",
      "ĠS ure",
      "ĠM O",
      "ĠO f",
      "ON G",
      "Ġter ri",
      "Ġent rance",
      "m ore",
      "ĠBAR RY",
      "ĠG ra",
      "i lo",
      "s ing",
      "Ġco p",
      "Ġcall ing",
      "Ġfind s",
      "Ġhur t",
      "ĠD UDE",
      "Ġro of",
      "Ġthink ing",
      "F TER",
      "Ġm ass",
      "ĠSC RE",
      "rid ge",
      "Ġquiet ly",
      "Ġbath room",
      "B S",
      "c her",
      "or ts",
      "Ġfor m",
      "ĠV IR",
      "Ġsp l",
      "ĠGU ARD",
      "Ġth ousand",
      "ĠG O",
      "OT EL",
      "bo ard",
      "T MAN",
      "in a",
      "Z Z",
      "m it",
      "Ġb and",
      "ĠM om",
      "ĠSH ARON",
      "ĠScot tie",
      "Ġdiffer ent",
      "ĠS W",
      "et t",
      "Ġj ump",
      "ĠSTE VE",
      "G IE",
      "l t",
      "z en",
      "Ġc ars",
      "ont h",
      "FF Y",
      "Ġbed room",
      "ĠLO VE",
      "ĠD UR",
      "IR L",
      "Ġl aw",
      "Ġe ff",
      "ĠTH EL",
      "au ght",
      "ĠU h",
      "ĠFA ITH",
      "ĠTHEL MA",
      "Ġ ve",
      "Ġp isto",
      "Ġsl ams",
      "Ġsin ce",
      "ĠVIR G",
      "m ond",
      "Ġra ises",
      "Ġrad io",
      "ĠQ u",
      "Ġg od",
      "Ġthink s",
      "Ġam ong",
      "Ġm is",
      "ĠS ha",
      "OM E",
      "Ġche ck",
      "Ġbot t",
      "S P",
      "Y LE",
      "it al",
      "ĠS ee",
      "ir st",
      "Ġli es",
      "Ġsh irt",
      "LL Y",
      "ĠEmm a",
      "ĠP L",
      "Ġevery one",
      "ta ble",
      "ĠF IR",
      "ĠJack ie",
      "r on",
      "Ġ z",
      "is ed",
      "ĠD ES",
      "Ġe at",
      "ĠJ ake",
      "Ġst range",
      "Ġv an",
      "Ġs ink",
      "Ġdo ctor",
      "Ġse ar",
      "ul ar",
      "Ġsto re",
      "Ġfing ers",
      "rie f",
      "Ġl ay",
      "to o",
      "Ġsh ort",
      "ĠSy kes",
      "g round",
      "n ot",
      "Ġst ory",
      "Ġsm oke",
      "ec ted",
      "Ġpull ing",
      "Ġ ice",
      "te en",
      "ĠAn other",
      "ĠWill iam",
      "Ġw ild",
      "Ġb are",
      "Ġc reat",
      "ĠW OO",
      "ĠP E",
      "ĠN ed",
      "S IDE",
      "Ġm onth",
      "Ġc as",
      "ĠW ITH",
      "OW N",
      "ren ch",
      "Ġb as",
      "Ġc ap",
      "ĠH en",
      "ol m",
      "ĠBl ack",
      "ĠThan ks",
      "S Y",
      "Ġle gs",
      "Ġtru e",
      "ĠBl ade",
      "ĠChe w",
      "aus es",
      "Ġcor rid",
      "ĠME M",
      "Ġes c",
      "Ġt aken",
      "ĠC RO",
      "ALL Y",
      "ĠBu zz",
      "Ġcount ry",
      "Ġnotic es",
      "ĠH IS",
      "ĠH ave",
      "ĠH AM",
      "IC A",
      "ĠVIRG IL",
      "Ġc ell",
      "ĠS AR",
      "ĠH al",
      "AR Y",
      "Ġbre aks",
      "ĠD ude",
      "Ġv a",
      "Ġpl ane",
      "Ġele v",
      "Ġm ill",
      "Ġg ave",
      "ĠM AY",
      "ĠW al",
      "Ġlist en",
      "Ġpos ition",
      "m as",
      "Ġto ss",
      "IN T",
      "ILL Y",
      "Ġlaugh ing",
      "Ġkiss es",
      "Ġ 9",
      "Ġt ri",
      "ĠROBIN SON",
      "P S",
      "ĠC on",
      "Ġwor ry",
      "ec tion",
      "Ġmin utes",
      "ĠG er",
      "Ġli ps",
      "f ic",
      "i um",
      "Ġg est",
      "bb ing",
      "key e",
      "B I",
      "I ELD",
      "Ġw in",
      "Ġc enter",
      "ti re",
      "ir es",
      "AK IN",
      "ĠQU I",
      "Ġp leas",
      "ĠL au",
      "Ġsta re",
      "AB E",
      "ĠBO B",
      "Ġsur round",
      "Ġnew s",
      "ĠHaw keye",
      "re ad",
      "is ing",
      "is hes",
      "AN G",
      "Ġexp ression",
      "ĠMu lder",
      "Ġd ance",
      "ĠM alc",
      "id ing",
      "Ġdri ves",
      "ĠBill y",
      "ĠMalc olm",
      "Ġm ed",
      "Ġg lo",
      "ur ch",
      "Ġke eps",
      "v o",
      "Ġs al",
      "ĠS en",
      "ĠS OUND",
      "ĠG IRL",
      "Ġre ar",
      "ĠV ik",
      "Ġhum an",
      "Ġheav y",
      "Ġt ree",
      "Ġc ard",
      "ĠV ictor",
      "ĠLe ia",
      "ĠROB ERT",
      "ĠHen ry",
      "Ġ rip",
      "Ġm ur",
      "M OND",
      "ĠM ars",
      "ON Y",
      "em ent",
      "ANT Z",
      "Ġc er",
      "Ġcra zy",
      "ĠAR CH",
      "Ġproble m",
      "as hing",
      "ĠJ er",
      "Ġsw ings",
      "Ġwindow s",
      "ĠRA ILLY",
      "Ġlif ts",
      "ĠR ed",
      "ion s",
      "Ġpo ol",
      "Ġtim es",
      "Ġsl ides",
      "ERI OR",
      "med ia",
      "l ine",
      "ĠA D",
      "ĠAN AKIN",
      "ĠEll iot",
      "IV ING",
      "Ġtrou ble",
      "o v",
      "ĠL ist",
      "ec ts",
      "Ġlist ening",
      "rou ght",
      "ic ally",
      "Ġfe ar",
      "Ġany one",
      "Ġlead s",
      "in c",
      "ĠS ETH",
      "ĠA MY",
      "ĠP OL",
      "E CT",
      "V IS",
      "EN N",
      "ener al",
      "ĠINT ER",
      "Ġsu it",
      "Ġwa its",
      "Ġim media",
      "Ġreal iz",
      "ĠChrist mas",
      "C ES",
      "ĠD u",
      "Ġl ying",
      "ce p",
      "Ġsp ot",
      "Ġsound s",
      "ĠWAL TER",
      "Ġ ign",
      "en ny",
      "ĠC RE",
      "ĠVal iant",
      "ĠI ns",
      "ĠN O",
      "Ġro ck",
      "ac tly",
      "ou ght",
      "Ġw ide",
      "Ġf low",
      "ĠHOW ARD",
      "z ab",
      "Ġh us",
      "Ġslight ly",
      "u rious",
      "Ġs na",
      "rac ks",
      "augh ter",
      "Ġbl ank",
      "Ġcorrid or",
      "g o",
      "AT T",
      "Ġeas y",
      "ow ns",
      "us hing",
      "ĠLOVE LL",
      "Ġelev ator",
      "zab eth",
      "V EL",
      "Ġs ong",
      "Ġb uck",
      "ad er",
      "ill s",
      "Ġke y",
      "Ġcat ches",
      "ĠLau ra",
      "Ġt un",
      "ra tion",
      "ĠL IVING",
      "UN D",
      "Ġcl ass",
      "Ġw ra",
      "Ġl uck",
      "ĠEli zabeth",
      "Ġjack et",
      "W ARD",
      "ĠM c",
      "ĠC la",
      "Ġwa ves",
      "Ġad v",
      "Ġdark ness",
      "Ġclim bs",
      "ĠFin ally",
      "Ġpisto l",
      "y er",
      "Ġri f",
      "Ġfeel ing",
      "tant ly",
      "e ks",
      "ĠA RE",
      "ĠE le",
      "Ġpl aces",
      "f ect",
      "ĠJEFF ERSON",
      "b ably",
      "ak ed",
      "ne y",
      "ĠLA UR",
      "b and",
      "Ġm od",
      "ĠEvery one",
      "j o",
      "an y",
      "Ġe ither",
      "Ġmo v",
      "ĠBLO OM",
      "e en",
      "s y",
      "Ġle ast",
      "ĠLe op",
      "ĠRo bert",
      "ti ll",
      "ĠT om",
      "ĠS L",
      "ĠSc hind",
      "ĠELL IE",
      ", \"",
      "lo g",
      "ad en",
      "Ġwe ap",
      "N E",
      "i ol",
      "r ia",
      "gu st",
      "Ġb an",
      "ĠL ITTLE",
      "ĠJ ud",
      "Ġfl ash",
      "!! !",
      "TH UR",
      "Ġbur st",
      "Ġc alm",
      "Ġe ight",
      "ĠL a",
      "Ġsee m",
      "ap ers",
      "ment s",
      "min ator",
      "ĠLeop old",
      "ĠSchind ler",
      "ĠA UG",
      "ĠA FTER",
      "Ġsta ge",
      "ĠV IC",
      "ĠRome o",
      "u h",
      "ri m",
      "Ġno se",
      "ĠLou ise",
      "ĠChew ie",
      "AND H",
      "Ġhu h",
      "ĠTIM E",
      "a le",
      "Ġy a",
      "ĠD el",
      "ĠR om",
      "ĠR ATH",
      "li ke",
      "Ġlet ter",
      "ĠAR THUR",
      "ITCH EN",
      "U B",
      "Ġc ry",
      "Ġp ol",
      "ĠM er",
      "Ġcam p",
      "b or",
      "c ess",
      "p es",
      "z es",
      "Ġpre p",
      "Ġchan ce",
      "Ġcigaret te",
      "ĠJ u",
      "ĠJ ES",
      "ĠSC ENE",
      "Ġfeel s",
      "Ġb rought",
      "om b",
      "ĠF ri",
      "Ġcon cer",
      "Ġar en",
      "Ġsurp ris",
      "ĠPOL ICE",
      "ĠH OTEL",
      "ĠA g",
      "im e",
      "ĠK e",
      "Ġtr uth",
      "ĠLOU ISE",
      "Ġsupp osed",
      "Ġind ic",
      "ĠH IGH",
      "Ġst ri",
      "TER S",
      "Ġwall s",
      "ĠJES US",
      "G L",
      "y ond",
      "Ġs ent",
      "Ġd inner",
      "Ġg entle",
      "ot e",
      "Ġr ushes",
      "ĠK ITCHEN",
      "Ġfollow ed",
      "ĠA LL",
      "ĠB ET",
      "ĠThe l",
      "cus e",
      "ĠCom m",
      "c lo",
      "Ġs le",
      "Ġb rief",
      "Ġp en",
      "Ġme ans",
      "Ġclos ed",
      "ĠOn ly",
      "Ġroll s",
      "Ġwhis per",
      "AC RO",
      "u nd",
      "Ġm id",
      "el low",
      "ound s",
      "ĠAm y",
      "ĠDEL ACRO",
      "ĠDELACRO IX",
      "N OON",
      "O K",
      "Ġdes t",
      "ĠP RO",
      "LE X",
      "Ġnear by",
      "abe z",
      "it or",
      "ĠS il",
      "ĠA lex",
      "ly n",
      "ĠJ abez",
      "ĠO VER",
      "Ġst un",
      "ie f",
      "Ġopen ing",
      "Ġbec om",
      "ĠAmeric an",
      "ĠCAPT AIN",
      "ĠS LO",
      "ĠC E",
      "ĠD ad",
      "ĠO LD",
      "ĠK ID",
      "Ġswe et",
      "Ġf un",
      "Ġfor g",
      "Ġhapp en",
      "Ġimmedia tely",
      "ha ps",
      "Ġf ix",
      "Ġp auses",
      "ĠFR OM",
      "ĠThel ma",
      "ĠP h",
      "ĠG L",
      "ĠMAR SH",
      "Ġfollow ing",
      "ĠS O",
      "Ġbe er",
      "Ġlo ck",
      "Ġmo on",
      "vis ion",
      "ar ra",
      "Ġy eah",
      "an ing",
      "ĠC AS",
      "Ġlo ad",
      "Ġkn ife",
      "Ġgu ards",
      "Ġcons id",
      "C UT",
      "F ORD",
      "n ow",
      "u ter",
      "Ġs ets",
      "ĠS eth",
      "ĠN ICK",
      "Ġscre ams",
      "Ġaud ience",
      "Ġg ate",
      "ĠF a",
      "Ġre l",
      "Ġgo ld",
      "Ġle ar",
      "Ġstr ong",
      "I OUS",
      "er ed",
      "ĠH AL",
      "ut s",
      "bo y",
      "Ġfac t",
      "ĠSte ve",
      "Ġrec ord",
      "PH IS",
      "ĠMEM PHIS",
      "ĠList en",
      "Ġb ene",
      "ĠM ISS",
      "Ġex it",
      "ID GE",
      "Ġretur ns",
      "ĠElliot t",
      "c ious",
      "Ġa ff",
      "es e",
      "Ġw ip",
      "Ġo cc",
      "im us",
      "Ġclo ud",
      "ĠAL VIN",
      "Ġdire ct",
      "Ġgre en",
      "Ġfill ed",
      "Ġcomple tely",
      "ĠJA KE",
      "I UM",
      "s ol",
      "Ġo p",
      "ĠS id",
      "ĠJ ane",
      "Ġnot e",
      "Ġwor ks",
      "AB ETH",
      "Ġdri ver",
      "Ġtou ch",
      "IZ ABETH",
      "f ess",
      "g an",
      "Ġen tire",
      "Ġra in",
      "Ġsil ent",
      "ĠEL IZABETH",
      "Ġnerv ous",
      "ĠCAT ES",
      "p ers",
      "Ġs ick",
      "Ġf ro",
      "Ġfir es",
      "uff y",
      "Ġimp or",
      "ĠTer minator",
      "Ġdoll ars",
      "I ER",
      "i ver",
      "w alk",
      "Ġs at",
      "ĠM UL",
      "ĠF ATHER",
      "RE Y",
      "ĠB y",
      "Ġmeta l",
      "ur ity",
      "Ġde v",
      "Ġche cks",
      "ĠDan ny",
      "Ġs ense",
      "... ?",
      "ĠF irst",
      "Ġse x",
      "ss a",
      "Ġsu per",
      "est ed",
      "Ġ1 2",
      "Ġtell ing",
      "ph one",
      "ĠCar ol",
      "Ġhat e",
      "Ġbro ken",
      "ĠW A",
      "ver n",
      "ĠG ANDH",
      "Ġco ol",
      "Ġany more",
      "Ġsha king",
      "ĠHE AD",
      "Ġhang ing",
      "Ġclim b",
      "ĠGANDH I",
      "A IR",
      "Ġp at",
      "ĠA G",
      "ĠE d",
      "ĠAN OTHER",
      "Ġali ve",
      "O S",
      "m ber",
      "Ġc up",
      "Ġdes per",
      "ĠL ittle",
      "Ġbec ome",
      "is hing",
      "ĠS orry",
      "Ġas leep",
      "Ġm ark",
      "ri ll",
      "ĠH ER",
      "ĠB ud",
      "ĠCH RIS",
      "ĠBU IL",
      "ĠAUG GIE",
      "Ġb right",
      "ec tive",
      "gg ing",
      "Ġcontinu e",
      "ĠLE OP",
      "umb les",
      "Ġtre es",
      "ĠLEOP OLD",
      "E P",
      "Ġs us",
      "Ġs and",
      "ĠD UN",
      "ĠP er",
      "ĠP AD",
      "Ġdro p",
      "Ġsing ing",
      "ter ed",
      "Ġho le",
      "ag ed",
      "iz ed",
      "Ġpr ison",
      "ĠMUL DER",
      "r ise",
      "Ġ id",
      "ĠC l",
      "ĠR ASH",
      "Ġthan k",
      "ĠAr too",
      "SS A",
      "gra ph",
      "Ġm ine",
      "Ġh our",
      "ĠD OWN",
      "ĠL es",
      "ĠO T",
      "ĠY OUN",
      "Ġcan not",
      "Ġab le",
      "Ġv iol",
      "CT ION",
      "ph is",
      "Ġcat ch",
      "ĠRASH ID",
      "ĠR ED",
      "ab b",
      "Ġgu ns",
      "Ġany way",
      "Ġlong er",
      "Ġele ct",
      "add y",
      "ĠDUR RANCE",
      "c ome",
      "ia lly",
      "ĠT ur",
      "ta ins",
      "ve lo",
      "as tic",
      "ig g",
      "Ġsha r",
      "Ġshow s",
      "ĠAFTER NOON",
      "Ġsurpris ed",
      "ĠBUIL DING",
      "I ANT",
      "en ta",
      "ti v",
      "ĠD RA",
      "id s",
      "Ġre ason",
      "end er",
      "Ġ1 0",
      "ĠDon nie",
      "Ġmar ried",
      "Ġhus band",
      "ti me",
      "ĠS ec",
      "ĠS US",
      "ĠP aden",
      "ĠO ut",
      "Ġsh rugs",
      "Ġsee ing",
      "Ġglass es",
      "in o",
      "ĠS Y",
      "ĠH am",
      "ĠG IB",
      "Ġex per",
      "ĠAN N",
      "Ġun if",
      "Ġstre t",
      "Ġdri ving",
      "ĠPAT RICK",
      "Ġopp os",
      "s c",
      "ar es",
      "ĠM em",
      "ĠM OV",
      "Ġme t",
      "Ġl ab",
      "ĠO R",
      "Ġfor get",
      "Ġsta tion",
      "Ġper fect",
      ". '",
      "en n",
      "ia r",
      "Ġw ish",
      "Ġg ro",
      "ĠM UN",
      "et tes",
      "ĠThe ir",
      "Ġbut ton",
      "Ġstar ted",
      "ran t",
      "ĠTh ree",
      "pl ay",
      "Ġsli ps",
      "Ġang ry",
      "Ġa im",
      "Ġs ou",
      "Ġd ia",
      "Ġo bs",
      "Ġl it",
      "Ġl ess",
      "Ġtra in",
      "re y",
      "ĠM al",
      "Ġth ro",
      "ress ed",
      "Ġfri ght",
      "ĠBe at",
      "ĠSte iner",
      "Ġcover ed",
      "ĠHALL WAY",
      "Ġdre am",
      "ĠOFFIC ER",
      "I AT",
      "a ven",
      "ha ll",
      "gu n",
      "Ġl ad",
      "ut y",
      "Ġri de",
      "Ġrem o",
      "A CE",
      "d o",
      "i ers",
      "Ġm ad",
      "ĠM US",
      "ĠC OL",
      "ĠD un",
      "Ġe qu",
      "ĠG RE",
      "ĠY ork",
      "Ġan im",
      "Ġex actly",
      "ix on",
      "ĠWOO DY",
      "ĠARCH ER",
      "Ġd aughter",
      "Ġn ur",
      "IN S",
      "Ġli e",
      "st em",
      "Ġdis c",
      "Ġevery body",
      "Ġser ious",
      "ĠBU FFY",
      "Ġshad ow",
      "UND ERS",
      "g th",
      "u c",
      "y ou",
      "Ġ er",
      "ĠN ixon",
      "RE D",
      "Ġtur ned",
      "Ġsw ing",
      "ets on",
      "Ġjo in",
      "lain e",
      "ĠRa fe",
      "Ġdam n",
      "Ġhesit ates",
      "Ġs igh",
      "ĠP ULL",
      "EN S",
      "ĠRE POR",
      "tor y",
      "Ġgi ving",
      "Ġcir c",
      "ĠVik tor",
      "ĠSUS AN",
      "f ace",
      "Ġt all",
      "Ġbo ard",
      "Ġpro bably",
      "Ġbr ings",
      "ĠMay a",
      "Ġkne es",
      "ĠSCH IND",
      "ĠSA UNDERS",
      "B B",
      "Ġw anna",
      "Ġg ently",
      "ĠH EN",
      "an ta",
      "Ġput ting",
      "Ġbat tle",
      "ĠSCHIND LER",
      "C O",
      "ia ns",
      "Ġd ust",
      "Ġb ase",
      "Ġl ady",
      "ĠF ULL",
      "un t",
      "i ent",
      "ic a",
      "ĠSTE INER",
      "ĠBr other",
      "arra ss",
      "ĠYOUN G",
      "B E",
      "C ER",
      "ĠA IR",
      "ĠB ets",
      "ĠD am",
      "Ġthem selves",
      "Ġex am",
      "Ġra ther",
      "ĠBILL Y",
      "ĠSEC OND",
      "p ly",
      "ĠO ur",
      "ĠF rench",
      "Ġscre aming",
      "by e",
      "ĠELL EN",
      "ĠMAR K",
      "Ġcare fully",
      "es ts",
      "Ġd ig",
      "Ġb le",
      "Ġp u",
      "ĠP l",
      "Ġse ated",
      "up id",
      "ĠDU FF",
      "Ġreco gn",
      "w h",
      "Ġ :",
      "Ġ et",
      "Ġt ro",
      "Ġs ort",
      "ing ly",
      "Ġf re",
      "ĠA h",
      "ĠJ etson",
      "ĠE arl",
      "Ġcomp uter",
      "00 0",
      "Ġdisapp ears",
      "Ġsna ps",
      "ĠBets y",
      "ĠS omething",
      "ĠC ates",
      "at ure",
      "ĠL IE",
      "ĠP LA",
      "ĠF ather",
      "ĠFran ces",
      "ĠCOR R",
      "Ġimpor tant",
      "Ġs ad",
      "EN ER",
      "ĠK AT",
      "Ġsome body",
      "ĠSAM E",
      "ĠVAL IANT",
      "ĠFri da",
      "Ġo per",
      "an ks",
      "ĠD I",
      "ĠV IO",
      "ĠST ANTZ",
      "Ġ1 7",
      "Ġob v",
      "ĠVIO LET",
      "Ġt em",
      "Ġto w",
      "Ġno tice",
      "Ġsti ck",
      "Ġlea ps",
      "ĠEmm ett",
      "ri k",
      "ĠT ONY",
      "Ġg rin",
      "ĠL ord",
      "AS AR",
      "Ġ1 8",
      "ĠFRAN CES",
      "ĠELE CT",
      "tim es",
      "ĠMem phis",
      "ĠW es",
      "ĠE rik",
      "AR E",
      "IT LE",
      "Ġex cept",
      "Ġtra il",
      "Ġhall way",
      "dam n",
      "Ġcer tain",
      "ĠFRANCES CA",
      "R ET",
      "Ġ ill",
      "Ġh ours",
      "an n",
      "Ġbe ll",
      "ĠG ot",
      "ĠV ader",
      "ĠMic he",
      "F T",
      "ra te",
      "ĠE laine",
      "ĠP EN",
      "IN A",
      "ĠRO AD",
      "ĠEll ie",
      "ĠSara h",
      "Ġrif le",
      "c ia",
      "ĠF LO",
      "ic es",
      "ĠK at",
      "IAN O",
      "Ġsn ow",
      "er o",
      "ĠA LEX",
      "Ġho sp",
      "ERI K",
      "Ġact ually",
      "Ġt ape",
      "Ġc ru",
      "Ġc aught",
      "ĠM ac",
      "et te",
      "AT CH",
      "IE W",
      "ĠAL ICE",
      "Ġask ed",
      "ĠPH ONE",
      "ĠMUS IC",
      "! \"",
      "Ġ ERIK",
      "ter ing",
      "Ġg low",
      "ĠINT O",
      "AD Y",
      "ĠMax imus",
      "ĠFrances ca",
      "il ity",
      "ĠK ing",
      "ĠPat rick",
      "Ġstun ned",
      "ĠHEN RY",
      "F E",
      "G LER",
      "a ti",
      "Ġc ow",
      "Ġc and",
      "ĠS N",
      "ar m",
      "Ġin f",
      "ĠM on",
      "Ġback s",
      "ĠTH R",
      "Ġbu y",
      "ĠSte ed",
      "Ġdan ger",
      "en cy",
      "Ġc rack",
      "ĠA S",
      "ĠR US",
      "ru p",
      "Ġ2 0",
      "ĠCh ris",
      "E E",
      "G EN",
      "en ch",
      "ĠC or",
      "ĠO K",
      "ust ed",
      "Ġsc ared",
      "Ġapp ear",
      "ĠFR ID",
      "Ġshould ers",
      "Ġpri v",
      "Ġemb arrass",
      "Ġoppos ite",
      "ĠA d",
      "ĠW OR",
      "ĠG eneral",
      "ĠV en",
      "ag er",
      "Ġbl ind",
      "Ġsing le",
      "Ġatta ck",
      "Ġsus p",
      "i ves",
      "or es",
      "ĠB uffy",
      "ĠW ould",
      "Ġu h",
      "li es",
      "ic s",
      "Ġcon vers",
      "AL Y",
      "ĠST UD",
      "ĠRE B",
      "Ġplay s",
      "ĠEM MA",
      "Ġhot el",
      "Ġsy stem",
      "Ġbene ath",
      "M E",
      "Ġe arth",
      "ĠJ ABE",
      "st on",
      "ĠJABE Z",
      "P IO",
      "ĠP ARK",
      "Ġwor ried",
      "UR N",
      "Ġgra nd",
      "Ġeng ine",
      "Ġadd ress",
      "ĠCE ASAR",
      "ĠM ON",
      "Ġre lie",
      "rou d",
      "ID OR",
      "ĠFIR ST",
      "Ġtoss es",
      "ĠMars hall",
      "Ġhosp ital",
      "O OL",
      "s u",
      "Ġs ens",
      "Ġb ridge",
      "ĠD RI",
      "Ġj e",
      "Ġpark ed",
      "ĠTHREE PIO",
      "K ES",
      "ĠS till",
      "if t",
      "Ġyour s",
      "Ġch urch",
      "ĠFR ONT",
      "Ġpa ti",
      "ĠHo lly",
      "Ġreveal ing",
      "Ġfif ty",
      "Ġce iling",
      "Ġbare ly",
      "lo ng",
      "Ġw ound",
      "ri z",
      "Ġbo at",
      "ĠPe ople",
      "Ġfly ing",
      "Ġfra me",
      "Z A",
      "s ion",
      "Ġc u",
      "ĠA b",
      "ĠM other",
      "Ġbe yond",
      "Ġst upid",
      "Ġdrink s",
      "ĠLAUR A",
      "R U",
      "Ġ !",
      "ra ge",
      "ĠA UD",
      "Ġde m",
      "Ġde ck",
      "Ġri d",
      "AM E",
      "Ġsa fe",
      "BO Y",
      "Ġthro at",
      "X T",
      "c ase",
      "ĠC am",
      "IN N",
      "ĠK ip",
      "ĠTH AT",
      "Ġpl at",
      "Ġsha ll",
      "ĠCOM M",
      "Ġshad ows",
      "ĠCORR IDOR",
      "? \"",
      "S C",
      "Ġ Dia",
      "ĠThe se",
      "ĠG re",
      "Ġre t",
      "Ġas ide",
      "Ġsta te",
      "il t",
      "Ġ1 3",
      "Ġ1 5",
      "AB B",
      "Ġhapp ens",
      "Ġconf used",
      "Ġcomm and",
      "Ġbook s",
      "Ġdraw s",
      "l ud",
      "in n",
      "or th",
      "Ġp ath",
      "ĠM EN",
      "ĠF ettes",
      "Ġr ings",
      "Ġsp ots",
      "Ġ1 1",
      "Ġ1 4",
      "ENT S",
      "d y",
      "w ork",
      "Ġp ours",
      "Ġser v",
      "ĠLUC IANO",
      "Ġbott om",
      "ĠHAM MOND",
      "ĠRom y",
      "ĠBET SY",
      "e as",
      "ĠF uck",
      "Ġwe ars",
      "han ge",
      "ĠVIC TOR",
      "ĠFRID A",
      "j ect",
      "r it",
      "Ġt iny",
      "Ġb omb",
      "Ġp un",
      "ĠJ ames",
      "Ġre ce",
      "ĠV ER",
      "IL Y",
      "QU IAT",
      "ĠBAS QUIAT",
      "D E",
      "o ps",
      "ĠB ETH",
      "AR S",
      "ac ed",
      "AD ER",
      "ĠHAR TMAN",
      "k man",
      "w s",
      "ĠA lice",
      "ĠB lo",
      "ĠJ UL",
      "Ġde li",
      "Ġsp ins",
      "Ġany body",
      "Ġmov ie",
      "I ES",
      "it a",
      "ĠR ose",
      "qu e",
      "Ġsa ve",
      "Ġsec urity",
      "ĠCO LL",
      "ĠGer man",
      "E F",
      "k a",
      "ĠH ouse",
      "ĠC LA",
      "ĠG ENER",
      "ur y",
      "Ġsto pped",
      "ĠHE ALY",
      "Ġmonth s",
      "ĠMARSH ALL",
      "o on",
      "Ġa ut",
      "Ġc a",
      "Ġf ran",
      "Ġp in",
      "Ġth irty",
      "ol s",
      "Ġor d",
      "Ġlist ens",
      "w ell",
      "ĠC le",
      "ĠL AND",
      "ĠO ver",
      "Ġpass ing",
      "Ġfli es",
      "Ġexc ited",
      "ĠPri ce",
      "? ?",
      "a ly",
      "n ight",
      "ĠH old",
      "ĠM ER",
      "ĠB at",
      "Ġse ll",
      "Ġv amp",
      "ĠBe hind",
      "less ly",
      "Ġwar m",
      "Ġ ran",
      "Ġb oun",
      "Ġm at",
      "Ġg rip",
      "Ġno ise",
      "Ġcra w",
      "Ġhur ries",
      "ĠSim one",
      "Ġstrugg les",
      "ĠFa ith",
      ". ,",
      "o ff",
      "ha rd",
      "lo oking",
      "Ġd a",
      "ĠT OM",
      "ĠJ ER",
      "Ġse lf",
      "Ġde ar",
      "ink s",
      "Ġal low",
      "OV ER",
      "bb y",
      "Ġt ired",
      "ĠB ra",
      "ĠB ig",
      "ĠL o",
      "ĠE VEN",
      "Ġsp read",
      "ho st",
      "Ġgl ance",
      "UM E",
      "Ġpar ents",
      "ĠRob in",
      "Ġremain s",
      "Ġmill ion",
      "b ed",
      "Ġr ush",
      "UR T",
      "Ġsecond s",
      "ĠDu ke",
      "u tion",
      "Ġs end",
      "Ġd ied",
      "ĠK YLE",
      "ho le",
      "Ġretur n",
      "Ġbecom es",
      "ĠELECT RA",
      "g y",
      "Ġp ara",
      "ĠC LE",
      "Ġlo se",
      "Ġwe ak",
      "ĠEXT ERIOR",
      "AM P",
      "Ġsho ots",
      "Ġsur face",
      "ĠEN D",
      "Ġtou ches",
      "ĠVen kman",
      "Ġb al",
      "Ġg ather",
      "am a",
      "Ġst rid",
      "Ġco lor",
      "Ġnew sp",
      "Ġear ly",
      "a ir",
      "re ep",
      "Ġb ill",
      "ĠA c",
      "ro y",
      "ĠE ven",
      "ad s",
      "Ġwood en",
      "Ġtele vision",
      "ĠFLO OR",
      "Ġd uck",
      "ĠB A",
      "ĠL and",
      "ad es",
      "Ġco ck",
      "OO K",
      "Ġbegin ning",
      "R OL",
      "Ġb od",
      "us e",
      "Ġe ating",
      "el t",
      "ĠJO KER",
      "ĠDA WN",
      "atter ed",
      "ATH AN",
      "Ġpa ir",
      "Ġconvers ation",
      "Ġt u",
      "ta b",
      "ĠC lo",
      "ĠN ATHAN",
      "ur s",
      "Ġgl ad",
      "io let",
      "Ġmeet ing",
      "Ġfight ing",
      "Ġsold iers",
      "y n",
      "Ġ X",
      "in da",
      "Ġb ank",
      "ĠT ITLE",
      "Ġp rac",
      "Ġp apers",
      "ĠM AS",
      "ĠM ONT",
      "ĠP AN",
      "ĠST AN",
      "Ġpull ed",
      "Ġch ick",
      "Ġam az",
      "OO D",
      "' .",
      "f ort",
      "m i",
      "Ġt ear",
      "ĠS w",
      "ĠN ick",
      "Ġup on",
      "ING S",
      "Ġsm ell",
      "ĠST ATION",
      "ĠFL ASH",
      "Ġu ns",
      "Ġfor ce",
      "gg ed",
      "Ġcour t",
      "ĠHO LLY",
      "ĠSIM ON",
      "Ġb unk",
      "Ġm ot",
      "Ġc rying",
      "ta lly",
      "ĠC eas",
      "id ence",
      "ĠO P",
      "Ġhand le",
      "Ġpl ate",
      "Ġdr unk",
      "ĠLe on",
      "Ġemer ges",
      "ĠJim my",
      "Ġdirect ly",
      "ĠMiche le",
      "ĠCeas ar",
      "Ġp ants",
      "Ġlo wer",
      "ĠG ray",
      "Ġwith in",
      "ust om",
      "ĠDo es",
      "Ġexc hange",
      "Ġspec ial",
      "Ġunif orm",
      "ĠS er",
      "ar ry",
      "ĠA u",
      "ON ES",
      "ac her",
      "ĠRO SE",
      "Ġ1 6",
      "Ġsoft ly",
      "R IC",
      "Ġg rim",
      "ĠNo body",
      "ĠMA C",
      "Ġsurp rise",
      "ĠDAN A",
      "ĠSto p",
      "Ġb ol",
      "ĠM ore",
      "Ġth ick",
      "Ġst ro",
      "Ġback ground",
      "ure d",
      "Ġexp lain",
      "Ġsk in",
      "ub lic",
      "Ġwhis pers",
      "Ġf unny",
      "ĠM unny",
      "ĠW IND",
      "ir th",
      "ĠF e",
      "ĠK N",
      "Ġsha ke",
      "Ġapp re",
      "Ġscre am",
      "tive ly",
      "Ġmess age",
      "ĠGENER AL",
      "? ...",
      "a i",
      "Ġs ister",
      "Ġw it",
      "ĠL ONG",
      "ur t",
      "ĠV iolet",
      "Ġco ps",
      "Ġfl at",
      "Ġpoin ting",
      "ĠPR ICE",
      "Ġgaz e",
      "ĠMUN NY",
      "Ġt ab",
      "Ġp ilo",
      "ar row",
      "Ġg iant",
      "Ġre la",
      "ĠJACK IE",
      "Ġrac es",
      "Ġcab in",
      "L IN",
      "t t",
      "Ġp roud",
      "Ġcl ut",
      "Ġim age",
      "Ġfin al",
      "ĠDON NIE",
      "IAN A",
      "Ġblow s",
      "Ġpres ent",
      "ĠD ra",
      "ĠD ET",
      "et y",
      "Ġl ed",
      "Ġth ird",
      "ad ing",
      "ĠG ive",
      "EN CH",
      "il da",
      "Ġne igh",
      "OU P",
      "Ġsit u",
      "Ġte am",
      "Ġbur ning",
      "Ġclear ly",
      "Ġkick s",
      "ĠSen ator",
      "ĠSY KES",
      "ĠD IANA",
      "ĠG ib",
      "Ġstar ting",
      "ĠDo ctor",
      "ĠCo lo",
      "Ġpress es",
      "ĠBr it",
      "ĠREPOR TER",
      "F arl",
      "s on",
      "Ġf ell",
      "Ġp il",
      "ĠS AL",
      "ĠD es",
      "se ll",
      "Ġse a",
      "ec ting",
      "Ġgra b",
      "udd y",
      "Ġblo ck",
      "ĠSTE ED",
      "ib ly",
      "ĠJUD GE",
      "Ġref le",
      "ĠMac Farl",
      "ĠEVEN ING",
      "ĠMacFarl ane",
      "R IST",
      "Ġp age",
      "ĠA B",
      "ĠD IRE",
      "Ġlo c",
      "Ġlo ose",
      "Ġre v",
      "Ġsta ir",
      "Ġli ves",
      "Ġmo tion",
      "Ġv ic",
      "ĠSh it",
      "Ġpain ting",
      "Ġkno cks",
      "Ġdeser t",
      "Ġm oun",
      "Ġu r",
      "ĠR ath",
      "AN O",
      "end ed",
      "Ġcar ries",
      "Ġlead ing",
      "Ġsleep ing",
      "Ġfa ir",
      "Ġapproach ing",
      "Ġrealiz es",
      "Ġet c",
      "ĠTHR OUGH",
      "k i",
      "l im",
      "t it",
      "Ġt ick",
      "Ġs lo",
      "ĠM ath",
      "ĠF RED",
      "ok s",
      "Ġse ven",
      "OU T",
      "IT AL",
      "ĠTh rough",
      "Ġem o",
      "Ġke ys",
      "Ġfo cus",
      "ULL Y",
      "reep io",
      "Ġp it",
      "ĠM us",
      "Ġst one",
      "Ġri des",
      "ap an",
      "Ġques tions",
      "Ġnerv ously",
      "Ġbod ies",
      "Ġm er",
      "Ġh ide",
      "us hed",
      "Ġex ha",
      "Ġpl astic",
      "Ġte eth",
      "ĠSh ut",
      "Ġtr ust",
      "S A",
      "c as",
      "e x",
      "Ġt ried",
      "ha m",
      "Ġb ike",
      "Ġh oney",
      "ĠS ay",
      "ĠC ARL",
      "if f",
      "ĠST ORE",
      "Ġstud ies",
      "ĠRus s",
      "j ust",
      "l in",
      "ri en",
      "Ġj er",
      "ge l",
      "Ġen jo",
      "Ġus ing",
      "ĠHow ard",
      "ĠLE IA",
      "ĠBl ume",
      "ĠCar l",
      "Ġbit ch",
      "Ġcre w",
      "ĠWal ter",
      "h ouse",
      "w hat",
      "ĠS QU",
      "ĠJ apan",
      "ĠG ord",
      "Ġsome where",
      "Ġen orm",
      "ĠTh reepio",
      "ins on",
      "ĠON E",
      "Ġfall ing",
      "ĠEvery thing",
      "Ġ19 9",
      "ĠTra vis",
      "ĠHam mond",
      "Ġt rip",
      "is m",
      "Ġg ar",
      "ĠC al",
      "Ġl un",
      "Ġr ow",
      "Ġwhat ever",
      "IT S",
      "Ġpo or",
      "Ġen velo",
      "ĠMA IN",
      "Ġfin ished",
      "ĠMath ilda",
      "Ġm ask",
      "Ġf av",
      "ri ously",
      "Ġh ung",
      "ĠC ENT",
      "ĠL YN",
      "ĠE T",
      "Ġan x",
      "Ġst orm",
      "Ġback ward",
      "ain e",
      "Ġpro du",
      "Ġhor ses",
      "Ġter ror",
      "Ġmon itor",
      "ĠRus sell",
      "Ġty pe",
      "re et",
      "ll a",
      "Ġh y",
      "Ġp ip",
      "Ġin form",
      "ĠH AND",
      "el ess",
      "Ġsp in",
      "Ġwor th",
      "op e",
      "AD D",
      "ĠCONT ROL",
      "Ġche er",
      "ĠTR ENT",
      "ĠSm ith",
      "Ġdou ble",
      "S IE",
      "a a",
      "es h",
      "Ġw ine",
      "Ġf an",
      "Ġf ish",
      "Ġh ill",
      "Ġe h",
      "OR T",
      "ĠV IEW",
      "Ġwa gon",
      "Ġun c",
      "US K",
      "AB LE",
      "ĠSc ully",
      "Ġeven ing",
      "Ġlow ers",
      "ĠEx cuse",
      "or ing",
      "ĠV ery",
      "Ġpo st",
      "Ġac tion",
      "Ġfo ol",
      "Ġcut s",
      "Ġland s",
      "ĠSEC RET",
      "Ġw ed",
      "ĠS pen",
      "Ġhe ro",
      "id ed",
      "Ġwe ar",
      "ĠST AR",
      "ĠJO SIE",
      "Ġreac ts",
      "ĠTR UCK",
      "ulo us",
      "ĠGra nd",
      "ĠWA IT",
      "A U",
      "B rien",
      "on se",
      "Ġc ri",
      "ĠM ag",
      "ol es",
      "Ġpro p",
      "Ġfin ishes",
      "Ġinter rup",
      "ĠChar les",
      "Ġdou b",
      "h y",
      "ta rd",
      "Ġar t",
      "here d",
      "Ġtra ffic",
      "ĠCLOSE UP",
      "Ġfin ish",
      "Ġlaugh ter",
      "Ġbus y",
      "Ġdrink ing",
      "Ġposs ible",
      "ĠSCRE EN",
      "E EN",
      "g a",
      "j ah",
      "k in",
      "o ra",
      "ĠS a",
      "ĠB AT",
      "ĠK id",
      "IS ON",
      "Ġac tiv",
      "ive ly",
      "Ġshow ing",
      "for table",
      "ĠJUD D",
      "ĠDia ne",
      "ĠBrit ish",
      "L ES",
      "Y SSA",
      "ĠS us",
      "ed ing",
      "Ġco st",
      "Ġhas n",
      "ation al",
      "Ġpe ace",
      "Ġsho es",
      "ĠLook s",
      "ĠBU ZZ",
      "Ġsim ple",
      "Ġgr ins",
      "Ġyell ing",
      "p se",
      "Ġt ill",
      "ĠJ un",
      "HN E",
      "Ġap art",
      "ĠCOR KY",
      "Ġgest ures",
      ". --",
      "W ER",
      "s et",
      "ta ke",
      "Ġhe ld",
      "ĠR AD",
      "Ġhor ri",
      "ĠAl right",
      "ĠSP EN",
      "ĠCOM P",
      "H e",
      "Ġw et",
      "Ġto wer",
      "Ġp ot",
      "ed s",
      "ĠB UT",
      "ĠP O",
      "ver ed",
      "Ġmo tions",
      "if ic",
      "AM S",
      "ĠLE ON",
      "ĠDIRE CTOR",
      "M IN",
      "h ow",
      "Ġd irt",
      "Ġm ic",
      "ĠS ER",
      "at u",
      "Ġl ap",
      "ĠG l",
      "ĠG reat",
      "Ġwh ist",
      "Ġle ather",
      "Ġhead ing",
      "Ġcar ry",
      "Ġthan ks",
      "Ġneed s",
      "Ġwr ite",
      "app ing",
      "Ġrep ort",
      "ĠBo y",
      "Ġrac e",
      "ulo n",
      "SP ITAL",
      "Ġforg ot",
      "r ent",
      "it ting",
      "ĠC AN",
      "ĠE ve",
      "li er",
      "Ġr ise",
      "au nd",
      "Ġevery where",
      "Ġste el",
      "tur es",
      "Ġfli ps",
      "Ġresp onse",
      "Ġir on",
      "Ġd im",
      "Ġp ush",
      "Ġit self",
      "Ġwa ve",
      "Ġhor ror",
      "Ġfur ther",
      "b ber",
      "Ġp ile",
      "ĠS K",
      ".. ...",
      "ĠP en",
      "Ġst om",
      "st e",
      "Ġbo oth",
      "ĠBe fore",
      "Ġgi ven",
      "Ġstart led",
      "Ġbull et",
      "EC CA",
      "ĠRob inson",
      "Ġchang ed",
      "ĠJu li",
      "ĠREB ECCA",
      "Ġsitu ation",
      "ĠB ack",
      "al low",
      "IN K",
      "um m",
      "ac t",
      "SE LL",
      "light s",
      "Ġsil ently",
      "Ġinc lud",
      "ĠEli jah",
      "---- ----",
      "ĠET HNE",
      "4 5",
      "f ive",
      "es ting",
      "Ġc ast",
      "Ġc ustom",
      "ĠH IM",
      "ĠC OUR",
      "Ġj ud",
      "ĠHO SPITAL",
      "Ġresp ond",
      "ĠDan a",
      "Ġchang es",
      "Ġfro zen",
      "ĠRUS SELL",
      "B RI",
      "U E",
      "t ra",
      "v al",
      "Ġf ile",
      "ĠD addy",
      "Ġon es",
      "Ġbe lt",
      "ĠCO P",
      "ĠSta n",
      "Ġdra wn",
      "OUN T",
      "Ġdisapp ear",
      "Ġdan cing",
      ") .",
      "H OUSE",
      "c ut",
      "h in",
      "w ers",
      "ĠJ udd",
      "ĠF E",
      "ok es",
      "il iar",
      "ac ing",
      "Ġcou ch",
      "Ġfac ing",
      "Ġap o",
      "ork y",
      "Ġmur der",
      "ĠSil ence",
      "Ġembarrass ed",
      "F ARL",
      "Ġt ank",
      "is ion",
      "it ies",
      "Ġf u",
      "Ġf le",
      "Ġp ray",
      "ĠS ON",
      "ĠB ones",
      "ĠO ffic",
      "Ġno body",
      "Ġdis play",
      "Ġsupp ose",
      "ĠMAC FARL",
      "ĠMACFARL ANE",
      "Y ER",
      "k er",
      "n ers",
      "Ġd ate",
      "Ġc ards",
      "Ġp al",
      "ĠL IGHT",
      "ĠP ause",
      "ĠN UR",
      "el ing",
      "ee ch",
      "GU E",
      "b ut",
      "g ar",
      "ĠC ITY",
      "IN O",
      "ĠIN DY",
      "el ve",
      "Ġro cks",
      "Ġtell s",
      "ĠMa ri",
      "ĠANG EL",
      "ĠSCH OOL",
      "Ġshout s",
      "p ara",
      "Ġ ene",
      "Ġt ap",
      "Ġp our",
      "ĠS IL",
      "ĠG UN",
      "Ġcha in",
      "Ġche ek",
      "Ġhapp ening",
      "Ġpass en",
      "ĠGR AY",
      "Ġcomm un",
      "ĠCRO SS",
      "ĠSAR AH",
      "Ġtun nel",
      "Ġs ol",
      "Ġo il",
      "ĠC orky",
      "ĠW alk",
      "Ġl ines",
      "ĠE ls",
      "Ġfor th",
      "pp y",
      "Ġv ol",
      "Ġsti r",
      "ĠWh ich",
      "ĠCLO S",
      "Ġcra s",
      "ĠBar ry",
      "Ġtab les",
      "Ġmo ved",
      "ide o",
      "Ġcar t",
      "Ġcomp any",
      "ĠNe ver",
      "Ġfil m",
      "Ġgod damn",
      "Ġenorm ous",
      "j or",
      "Ġt ax",
      "Ġb ars",
      "it ches",
      "ĠT ony",
      "AR RY",
      "Ġcon n",
      "IT Z",
      "Ġco vers",
      "Ġpo ps",
      "tic al",
      "Ġfir m",
      "Ġtalk s",
      "ian o",
      "ĠHE AR",
      "sh ip",
      "fer ence",
      "ĠPR ES",
      "Ġans wers",
      "ĠSU B",
      "ĠDET ECT",
      "c ra",
      "er n",
      "er t",
      "Ġs udden",
      "on da",
      "Ġd ad",
      "ĠH ur",
      "ĠA dam",
      "our t",
      "IT OR",
      "Ġsti cks",
      "ho od",
      "Ġsqu ee",
      "ĠInd ian",
      "Ġmil es",
      "ĠEle ct",
      "Ġfright ened",
      "e ad",
      "s ed",
      "Ġf ain",
      "om an",
      "ĠA ulon",
      "AN K",
      "OM ER",
      "Ġpo p",
      "em b",
      "Ġqu ar",
      "ACK S",
      "UL ON",
      "Ġthrow ing",
      "no on",
      "ĠDU KE",
      "ĠAmeric a",
      "ĠDAN NY",
      "Ġplat form",
      "ĠLand o",
      "BRI EN",
      "A V",
      "g ress",
      "h ic",
      "on ed",
      "Ġf elt",
      "Ġy ard",
      "ĠC OW",
      "ĠB IG",
      "ĠG AR",
      "Ġas king",
      "Ġwe ight",
      "ST E",
      "Ġarm y",
      "sh it",
      "Ġreal ize",
      "ĠEvery body",
      "ĠDe ath",
      "Ġfore head",
      "Ġfur n",
      "Ġmass ive",
      "C ONT",
      "L IGHT",
      "S KY",
      "Ġs ides",
      "ra ted",
      "Ġb ench",
      "Ġc ash",
      "ĠC ould",
      "ĠW ar",
      "Ġth in",
      "Ġcon ta",
      "Ġad m",
      "Ġblo ody",
      "Ġfo ld",
      "ĠCHARL ES",
      "ĠEll en",
      "ĠBo ss",
      "W AN",
      "a ves",
      "c il",
      "Ġf ut",
      "Ġo dd",
      "ta t",
      "ĠH OLD",
      "ĠW ES",
      "as ts",
      "ĠL ATE",
      "ĠP ar",
      "Ġfor ty",
      "Ġwe eks",
      "Ġho od",
      "iss ion",
      "ĠRE EF",
      "Ġstre ets",
      "ĠSc h",
      "ĠSE E",
      "umb ling",
      "Ġbreat hing",
      "ĠJEFF REY",
      "GL INE",
      "ĠDRA GLINE",
      "Ġsigh s",
      "M ER",
      "N EY",
      "b ur",
      "u le",
      "w ing",
      "Ġw ire",
      "ĠA ULON",
      "ĠJ UN",
      "Ġu ne",
      "ĠP AL",
      "ĠN OR",
      "ĠHe ck",
      "EN A",
      "ĠShe p",
      "ig ns",
      "Ġsw im",
      "ĠRe b",
      "Ġsil ver",
      "ĠJIM MY",
      "ĠGu ard",
      "Ġpor ch",
      "Ġsurround ed",
      "b ar",
      "i pping",
      "j am",
      "k ward",
      "ĠS IR",
      "ĠA C",
      "ĠM OM",
      "Ġbe long",
      "ĠR and",
      "ĠR em",
      "ĠR EST",
      "Ġat te",
      "ge ant",
      "Ġle aning",
      "Ġnot es",
      "ĠJo ey",
      "ĠWH AT",
      "Ġmiss ing",
      "Ġswe at",
      "Ġthr own",
      "Ġva rious",
      "Ġweap on",
      "fess or",
      "a ul",
      "Ġ ver",
      "Ġt ie",
      "Ġb irth",
      "ri ff",
      "Ġg ener",
      "Ġl amp",
      "ĠF our",
      "Ġsh ots",
      "Ġsu itc"
    ]
  }
}